{
  "version": "1.0",
  "truncation": null,
  "padding": null,
  "added_tokens": [],
  "normalizer": null,
  "pre_tokenizer": {
    "type": "ByteLevel",
    "add_prefix_space": false,
    "trim_offsets": true,
    "use_regex": true
  },
  "post_processor": null,
  "decoder": {
    "type": "ByteLevel",
    "add_prefix_space": true,
    "trim_offsets": true,
    "use_regex": true
  },
  "model": {
    "type": "BPE",
    "dropout": null,
    "unk_token": null,
    "continuing_subword_prefix": null,
    "end_of_word_suffix": null,
    "fuse_unk": false,
    "byte_fallback": false,
    "ignore_merges": false,
    "vocab": {
      "!": 0,
      "\"": 1,
      "#": 2,
      "$": 3,
      "%": 4,
      "&": 5,
      "'": 6,
      "(": 7,
      ")": 8,
      "*": 9,
      "+": 10,
      ",": 11,
      "-": 12,
      ".": 13,
      "/": 14,
      "0": 15,
      "1": 16,
      "2": 17,
      "3": 18,
      "4": 19,
      "5": 20,
      "6": 21,
      "7": 22,
      "8": 23,
      "9": 24,
      ":": 25,
      ";": 26,
      "<": 27,
      "=": 28,
      ">": 29,
      "?": 30,
      "@": 31,
      "A": 32,
      "B": 33,
      "C": 34,
      "D": 35,
      "E": 36,
      "F": 37,
      "G": 38,
      "H": 39,
      "I": 40,
      "J": 41,
      "K": 42,
      "L": 43,
      "M": 44,
      "N": 45,
      "O": 46,
      "P": 47,
      "Q": 48,
      "R": 49,
      "S": 50,
      "T": 51,
      "U": 52,
      "V": 53,
      "W": 54,
      "X": 55,
      "Y": 56,
      "Z": 57,
      "[": 58,
      "\\": 59,
      "]": 60,
      "^": 61,
      "_": 62,
      "`": 63,
      "a": 64,
      "b": 65,
      "c": 66,
      "d": 67,
      "e": 68,
      "f": 69,
      "g": 70,
      "h": 71,
      "i": 72,
      "j": 73,
      "k": 74,
      "l": 75,
      "m": 76,
      "n": 77,
      "o": 78,
      "p": 79,
      "q": 80,
      "r": 81,
      "s": 82,
      "t": 83,
      "u": 84,
      "v": 85,
      "w": 86,
      "x": 87,
      "y": 88,
      "z": 89,
      "{": 90,
      "|": 91,
      "}": 92,
      "~": 93,
      "¡": 94,
      "¢": 95,
      "£": 96,
      "¤": 97,
      "¥": 98,
      "¦": 99,
      "§": 100,
      "¨": 101,
      "©": 102,
      "ª": 103,
      "«": 104,
      "¬": 105,
      "®": 106,
      "¯": 107,
      "°": 108,
      "±": 109,
      "²": 110,
      "³": 111,
      "´": 112,
      "µ": 113,
      "¶": 114,
      "·": 115,
      "¸": 116,
      "¹": 117,
      "º": 118,
      "»": 119,
      "¼": 120,
      "½": 121,
      "¾": 122,
      "¿": 123,
      "À": 124,
      "Á": 125,
      "Â": 126,
      "Ã": 127,
      "Ä": 128,
      "Å": 129,
      "Æ": 130,
      "Ç": 131,
      "È": 132,
      "É": 133,
      "Ê": 134,
      "Ë": 135,
      "Ì": 136,
      "Í": 137,
      "Î": 138,
      "Ï": 139,
      "Ð": 140,
      "Ñ": 141,
      "Ò": 142,
      "Ó": 143,
      "Ô": 144,
      "Õ": 145,
      "Ö": 146,
      "×": 147,
      "Ø": 148,
      "Ù": 149,
      "Ú": 150,
      "Û": 151,
      "Ü": 152,
      "Ý": 153,
      "Þ": 154,
      "ß": 155,
      "à": 156,
      "á": 157,
      "â": 158,
      "ã": 159,
      "ä": 160,
      "å": 161,
      "æ": 162,
      "ç": 163,
      "è": 164,
      "é": 165,
      "ê": 166,
      "ë": 167,
      "ì": 168,
      "í": 169,
      "î": 170,
      "ï": 171,
      "ð": 172,
      "ñ": 173,
      "ò": 174,
      "ó": 175,
      "ô": 176,
      "õ": 177,
      "ö": 178,
      "÷": 179,
      "ø": 180,
      "ù": 181,
      "ú": 182,
      "û": 183,
      "ü": 184,
      "ý": 185,
      "þ": 186,
      "ÿ": 187,
      "Ā": 188,
      "ā": 189,
      "Ă": 190,
      "ă": 191,
      "Ą": 192,
      "ą": 193,
      "Ć": 194,
      "ć": 195,
      "Ĉ": 196,
      "ĉ": 197,
      "Ċ": 198,
      "ċ": 199,
      "Č": 200,
      "č": 201,
      "Ď": 202,
      "ď": 203,
      "Đ": 204,
      "đ": 205,
      "Ē": 206,
      "ē": 207,
      "Ĕ": 208,
      "ĕ": 209,
      "Ė": 210,
      "ė": 211,
      "Ę": 212,
      "ę": 213,
      "Ě": 214,
      "ě": 215,
      "Ĝ": 216,
      "ĝ": 217,
      "Ğ": 218,
      "ğ": 219,
      "Ġ": 220,
      "ġ": 221,
      "Ģ": 222,
      "ģ": 223,
      "Ĥ": 224,
      "ĥ": 225,
      "Ħ": 226,
      "ħ": 227,
      "Ĩ": 228,
      "ĩ": 229,
      "Ī": 230,
      "ī": 231,
      "Ĭ": 232,
      "ĭ": 233,
      "Į": 234,
      "į": 235,
      "İ": 236,
      "ı": 237,
      "Ĳ": 238,
      "ĳ": 239,
      "Ĵ": 240,
      "ĵ": 241,
      "Ķ": 242,
      "ķ": 243,
      "ĸ": 244,
      "Ĺ": 245,
      "ĺ": 246,
      "Ļ": 247,
      "ļ": 248,
      "Ľ": 249,
      "ľ": 250,
      "Ŀ": 251,
      "ŀ": 252,
      "Ł": 253,
      "ł": 254,
      "Ń": 255,
      "Ġt": 256,
      "he": 257,
      "Ġa": 258,
      "in": 259,
      "Ġthe": 260,
      "Ġo": 261,
      "re": 262,
      "er": 263,
      "an": 264,
      "Ġb": 265,
      "on": 266,
      "Ġof": 267,
      "it": 268,
      "Ġc": 269,
      "at": 270,
      "en": 271,
      "ĠĠ": 272,
      "es": 273,
      "Ġs": 274,
      "is": 275,
      "Ġw": 276,
      "Ġin": 277,
      "Ġp": 278,
      "or": 279,
      "Ġf": 280,
      "al": 281,
      "ed": 282,
      "Ġm": 283,
      "Ġan": 284,
      "Ġto": 285,
      "ar": 286,
      "ou": 287,
      "ing": 288,
      "ion": 289,
      "ic": 290,
      "Ġd": 291,
      "Ġand": 292,
      "as": 293,
      "Ġth": 294,
      "ent": 295,
      "Ġh": 296,
      "om": 297,
      "st": 298,
      "ly": 299,
      "ĠĠĠĠ": 300,
      "Ġn": 301,
      "Ġe": 302,
      "Ġl": 303,
      "Ġbe": 304,
      "ank": 305,
      "Ġre": 306,
      "ct": 307,
      "ve": 308,
      "Ġis": 309,
      "ll": 310,
      "le": 311,
      "ro": 312,
      "ce": 313,
      "ot": 314,
      "ur": 315,
      "se": 316,
      "Ġg": 317,
      "Ġbank": 318,
      "Ġit": 319,
      "ld": 320,
      "Ġfor": 321,
      "ation": 322,
      "--": 323,
      "ch": 324,
      "Ġon": 325,
      "Ġwh": 326,
      "ut": 327,
      "the": 328,
      "Ġthat": 329,
      "ver": 330,
      "ĠT": 331,
      "im": 332,
      "Ġas": 333,
      "nt": 334,
      "ay": 335,
      "Ġu": 336,
      "Ġde": 337,
      "ad": 338,
      "ir": 339,
      "Ġby": 340,
      "Ġex": 341,
      "and": 342,
      "id": 343,
      "et": 344,
      "ment": 345,
      "ess": 346,
      "Ġnot": 347,
      "ge": 348,
      "ich": 349,
      "Ġor": 350,
      "ow": 351,
      "00": 352,
      "ith": 353,
      "ul": 354,
      "ers": 355,
      "ount": 356,
      "ill": 357,
      "ate": 358,
      "red": 359,
      "Ġwhich": 360,
      "il": 361,
      "ĠI": 362,
      "Ġcon": 363,
      "ab": 364,
      "Ġsu": 365,
      "Ġare": 366,
      "ĠThe": 367,
      "ig": 368,
      "ra": 369,
      "Ġpro": 370,
      "os": 371,
      "Ġwith": 372,
      "Ġst": 373,
      "nd": 374,
      "ies": 375,
      "ore": 376,
      "qu": 377,
      "us": 378,
      "ĠĠĠĠĠĠĠĠ": 379,
      "Ġ1": 380,
      "ort": 381,
      "Ġwe": 382,
      "ust": 383,
      "Ġcom": 384,
      "ĠA": 385,
      "if": 386,
      "ĠS": 387,
      "Ġgo": 388,
      "Ġha": 389,
      "one": 390,
      "res": 391,
      "ĠB": 392,
      "ity": 393,
      "ould": 394,
      "ec": 395,
      "Ġbanks": 396,
      "em": 397,
      "Ġat": 398,
      "ap": 399,
      "ain": 400,
      "Ġhave": 401,
      "Ġr": 402,
      "est": 403,
      "rom": 404,
      "ect": 405,
      "th": 406,
      "od": 407,
      "ther": 408,
      "end": 409,
      "oney": 410,
      "ew": 411,
      "iv": 412,
      "pos": 413,
      "ric": 414,
      "Ġres": 415,
      "ant": 416,
      "ak": 417,
      "su": 418,
      "ive": 419,
      "Ġwas": 420,
      "pt": 421,
      "..": 422,
      "Ġint": 423,
      "ial": 424,
      "Ġper": 425,
      "pp": 426,
      "ance": 427,
      "Ġthis": 428,
      "Ġhas": 429,
      "Ġsh": 430,
      "ans": 431,
      "ĠC": 432,
      "Ġits": 433,
      "Ġfrom": 434,
      "Ġv": 435,
      "Ġtr": 436,
      "all": 437,
      "----": 438,
      "Ġmoney": 439,
      "ist": 440,
      "Ġtheir": 441,
      "oc": 442,
      "ions": 443,
      "am": 444,
      "anc": 445,
      "act": 446,
      "ere": 447,
      "ard": 448,
      "ĠF": 449,
      "um": 450,
      "Ġy": 451,
      "ond": 452,
      "Ġhe": 453,
      "ates": 454,
      "erve": 455,
      "ĠE": 456,
      "ĠN": 457,
      "ol": 458,
      "Ġother": 459,
      "able": 460,
      "ter": 461,
      "per": 462,
      "gh": 463,
      "posit": 464,
      "ff": 465,
      "000": 466,
      "eral": 467,
      "Ġbeen": 468,
      "Ġthey": 469,
      "port": 470,
      "cc": 471,
      "Ġall": 472,
      "Ġgold": 473,
      "Ġwould": 474,
      "chan": 475,
      "Ġso": 476,
      "reas": 477,
      "ear": 478,
      "our": 479,
      "redit": 480,
      "ary": 481,
      "Ġwill": 482,
      "Ġwhe": 483,
      "ough": 484,
      "ost": 485,
      "Ġbut": 486,
      "ade": 487,
      "ome": 488,
      "Ġdo": 489,
      "ous": 490,
      "ities": 491,
      "iness": 492,
      "art": 493,
      "mer": 494,
      "Ġse": 495,
      "ry": 496,
      "usiness": 497,
      "ib": 498,
      "Ġinc": 499,
      "ork": 500,
      "Ġal": 501,
      "Ġone": 502,
      "igh": 503,
      "The": 504,
      "Ġmore": 505,
      "Ġcent": 506,
      "ue": 507,
      "ĠM": 508,
      "Ġmay": 509,
      "ac": 510,
      "ĠL": 511,
      "Ġthere": 512,
      "Ġad": 513,
      "ose": 514,
      "Ġim": 515,
      "ally": 516,
      "ire": 517,
      "Ġch": 518,
      "ĠW": 519,
      "Ġany": 520,
      "Ġab": 521,
      "Ġcomp": 522,
      "her": 523,
      "Ġpric": 524,
      "un": 525,
      "Ġam": 526,
      "ations": 527,
      "any": 528,
      "Ġcount": 529,
      "Ġcredit": 530,
      "Ġup": 531,
      "Ġthem": 532,
      "op": 533,
      "Ġlo": 534,
      "ĠR": 535,
      "Ġbusiness": 536,
      "ĠP": 537,
      "of": 538,
      "Ġfin": 539,
      "ure": 540,
      "Ġ_": 541,
      "Ġdeposit": 542,
      "very": 543,
      "reat": 544,
      "change": 545,
      "ĊĊ": 546,
      "Ġthan": 547,
      "ments": 548,
      "ong": 549,
      "Ġpay": 550,
      "Ġwere": 551,
      "ag": 552,
      "Ġdis": 553,
      "ĠG": 554,
      "oin": 555,
      "Ġind": 556,
      "Ġle": 557,
      "ult": 558,
      "av": 559,
      "Ġcan": 560,
      "Ġag": 561,
      "Ġcas": 562,
      "age": 563,
      "Ġme": 564,
      "pl": 565,
      "Ġtim": 566,
      "cy": 567,
      "ber": 568,
      "ence": 569,
      "out": 570,
      "ĠO": 571,
      "ĠSt": 572,
      "tain": 573,
      "ĠBank": 574,
      "Ġno": 575,
      "nder": 576,
      "wn": 577,
      "ital": 578,
      "du": 579,
      "Ġlar": 580,
      "ĠIt": 581,
      "apital": 582,
      "Ġsuch": 583,
      "ren": 584,
      "ĠIn": 585,
      "ign": 586,
      "ated": 587,
      "Ġonly": 588,
      "ight": 589,
      "ke": 590,
      "Ġhis": 591,
      "Ġsec": 592,
      "ast": 593,
      "ings": 594,
      "Ġwho": 595,
      "ake": 596,
      "Ġbill": 597,
      "ark": 598,
      "erest": 599,
      "ĊĠĠĠĠ": 600,
      "ĠY": 601,
      "Ġ\"": 602,
      "Ġact": 603,
      "Ġ|": 604,
      "con": 605,
      "Ġacc": 606,
      "Ġ18": 607,
      "yst": 608,
      "Ġreserve": 609,
      "ystem": 610,
      "Ġpl": 611,
      "Ġpart": 612,
      "ach": 613,
      "bl": 614,
      "Ġqu": 615,
      "Ġsp": 616,
      "count": 617,
      "Ġun": 618,
      "Ġissu": 619,
      "Ġexchange": 620,
      "ame": 621,
      "Ġout": 622,
      "Ġnotes": 623,
      "Ġ(": 624,
      "und": 625,
      "Ġwhen": 626,
      "ors": 627,
      "Ġif": 628,
      "cept": 629,
      "ex": 630,
      "iz": 631,
      "Ġcomm": 632,
      "Ġincreas": 633,
      "over": 634,
      "ie": 635,
      "Ġamount": 636,
      "Ġcont": 637,
      "bank": 638,
      "ĠTh": 639,
      "Ġhad": 640,
      "ip": 641,
      "to": 642,
      "gl": 643,
      "ational": 644,
      "oll": 645,
      "Ġcapital": 646,
      "ish": 647,
      "Ġyear": 648,
      "old": 649,
      "Ġgreat": 650,
      "ĠD": 651,
      "Ġthese": 652,
      "ever": 653,
      "Ġ2": 654,
      "Ġour": 655,
      "au": 656,
      "are": 657,
      "irc": 658,
      "Ġli": 659,
      "we": 660,
      "ĠĠĠĠĠĠĠĠĠĠĠĠĠĠĠĠ": 661,
      "ngl": 662,
      "ise": 663,
      "Ġinterest": 664,
      "Ġcountry": 665,
      "Ġ$": 666,
      "ract": 667,
      "erv": 668,
      "ĠH": 669,
      "Ġbanking": 670,
      "ock": 671,
      "ited": 672,
      "ulation": 673,
      "Ġtime": 674,
      "Ġlarge": 675,
      "Ġdem": 676,
      "ĠU": 677,
      "'s": 678,
      "Ġfar": 679,
      "Ġdra": 680,
      "row": 681,
      "Ġupon": 682,
      "Ġprices": 683,
      "Ġcur": 684,
      "Ġunder": 685,
      "Ġgood": 686,
      "Ġmade": 687,
      "Ġapp": 688,
      "Ġsystem": 689,
      "Ġsome": 690,
      "de": 691,
      "ven": 692,
      "iff": 693,
      "Ġen": 694,
      "ĠNew": 695,
      "ĠĠĠ": 696,
      "ice": 697,
      "Ġpre": 698,
      "pro": 699,
      "fore": 700,
      "ide": 701,
      "eneral": 702,
      "Ġbec": 703,
      "Ġ19": 704,
      "Ġdemand": 705,
      "uch": 706,
      "ree": 707,
      "Ġmark": 708,
      "ts": 709,
      "rency": 710,
      "Ġinv": 711,
      "Ġpur": 712,
      "Ġoff": 713,
      "for": 714,
      "ound": 715,
      "Ġus": 716,
      "Ġexp": 717,
      "ass": 718,
      "resent": 719,
      "Ġbr": 720,
      "ition": 721,
      "Ġval": 722,
      "_,": 723,
      "ious": 724,
      "itt": 725,
      "Ġra": 726,
      "vel": 727,
      "ĠEngl": 728,
      "ail": 729,
      "ĠStates": 730,
      "Ġinto": 731,
      "Ġpr": 732,
      "ederal": 733,
      "Ġcons": 734,
      "erm": 735,
      "ress": 736,
      "--------": 737,
      "ffect": 738,
      "aw": 739,
      "ual": 740,
      "Ġcl": 741,
      "oss": 742,
      "ĠYork": 743,
      "ause": 744,
      "so": 745,
      "Ġmust": 746,
      "ances": 747,
      "Ġcirc": 748,
      "ative": 749,
      "Ġfact": 750,
      "sel": 751,
      "aid": 752,
      "nment": 753,
      "Ġinst": 754,
      "ction": 755,
      "Ġimport": 756,
      "lu": 757,
      "ays": 758,
      "Ġman": 759,
      "Ġbet": 760,
      "ind": 761,
      "Ġnew": 762,
      "ord": 763,
      "Ġmarket": 764,
      "ied": 765,
      "Ġgeneral": 766,
      "Ġfir": 767,
      "Ġvery": 768,
      "Ġsupp": 769,
      "ible": 770,
      "ower": 771,
      "ile": 772,
      "Ġar": 773,
      "Ġprov": 774,
      "ondon": 775,
      "ens": 776,
      "not": 777,
      "fit": 778,
      "Ġwork": 779,
      "Ġrate": 780,
      "eed": 781,
      "Ġreg": 782,
      "Ġdeposits": 783,
      "eserve": 784,
      "be": 785,
      "Ġbills": 786,
      "Ġloans": 787,
      "ĠUn": 788,
      "Ġext": 789,
      "ep": 790,
      "Ġcer": 791,
      "Ġover": 792,
      "Ġbu": 793,
      "Ġtw": 794,
      "Ġche": 795,
      "com": 796,
      "ubl": 797,
      "Ġsecur": 798,
      "irect": 799,
      "Ġmost": 800,
      "aper": 801,
      "ee": 802,
      "rough": 803,
      "Ġsub": 804,
      "ject": 805,
      "Ġshould": 806,
      "urn": 807,
      "Ġsame": 808,
      "Ġac": 809,
      "Ġfore": 810,
      "lear": 811,
      "oint": 812,
      "Ġvalue": 813,
      "wh": 814,
      "Ġlaw": 815,
      "ER": 816,
      "Ġcurrency": 817,
      "ks": 818,
      "Ġdiff": 819,
      "Ġrequ": 820,
      "Ġcash": 821,
      "ween": 822,
      "ern": 823,
      "Ġfund": 824,
      "AN": 825,
      "Ġ3": 826,
      "inc": 827,
      "Ġprodu": 828,
      "ĠThis": 829,
      "ility": 830,
      "mall": 831,
      "ove": 832,
      "....": 833,
      "ily": 834,
      "ĠLondon": 835,
      "ublic": 836,
      "Ġhow": 837,
      "Ġown": 838,
      "Ġtrans": 839,
      "Ġord": 840,
      "Ġstand": 841,
      "Ġk": 842,
      "Ġmany": 843,
      "Ġadv": 844,
      "ĠReserve": 845,
      "itut": 846,
      "ecess": 847,
      "Ġent": 848,
      "ces": 849,
      "Ġloan": 850,
      "Ġmuch": 851,
      "Ġhand": 852,
      "ilver": 853,
      "ĠUnited": 854,
      "bt": 855,
      "Ġprice": 856,
      "Ġrece": 857,
      "meric": 858,
      "Ġfinanc": 859,
      "hed": 860,
      "Ġsmall": 861,
      "ĠEngland": 862,
      "Ġdist": 863,
      "own": 864,
      "Ġest": 865,
      "rop": 866,
      "Ġeach": 867,
      "Ġtrust": 868,
      "Ġinvest": 869,
      "Ġdep": 870,
      "ical": 871,
      "Ġless": 872,
      "Ġuse": 873,
      "Ġgoods": 874,
      "Ġstock": 875,
      "Ġthose": 876,
      "Ġstate": 877,
      "ty": 878,
      "Ġbetween": 879,
      "Ġob": 880,
      "Ġequ": 881,
      "ific": 882,
      "Ġalso": 883,
      "Ġfirst": 884,
      "orrow": 885,
      "Ġdiscount": 886,
      "ace": 887,
      "Ġpaper": 888,
      "Ġyou": 889,
      "Ġaccount": 890,
      "uring": 891,
      "Ġrel": 892,
      "Ġmake": 893,
      "ries": 894,
      "Ġagain": 895,
      "cl": 896,
      "rit": 897,
      "Ġmat": 898,
      "Ġtrade": 899,
      "ustom": 900,
      "overnment": 901,
      "Ġissue": 902,
      "Ġbond": 903,
      "Ġform": 904,
      "ider": 905,
      "Ġleg": 906,
      "Ġtwo": 907,
      "ĠJ": 908,
      "ges": 909,
      "ĠIf": 910,
      "that": 911,
      "Ġspec": 912,
      "Ġforeign": 913,
      "Ġthrough": 914,
      "ury": 915,
      "ollow": 916,
      "ru": 917,
      "Ġincrease": 918,
      "Ġmon": 919,
      "Ġmet": 920,
      "ine": 921,
      "Ġrem": 922,
      "Ġaccept": 923,
      "ix": 924,
      "Ġposs": 925,
      "Ġbeing": 926,
      "Ġj": 927,
      "Ġprofit": 928,
      "Ġyears": 929,
      "iod": 930,
      "Ġ4": 931,
      "ced": 932,
      "abl": 933,
      "aking": 934,
      "Ġchar": 935,
      "Ġneed": 936,
      "Ġindust": 937,
      "chas": 938,
      "ĠAmeric": 939,
      "other": 940,
      "ris": 941,
      "ory": 942,
      "ĠFederal": 943,
      "Ġabout": 944,
      "Ġclear": 945,
      "Ġchan": 946,
      "avings": 947,
      "Ġmem": 948,
      "hes": 949,
      "Ġcase": 950,
      "cent": 951,
      "Ġeffect": 952,
      "gan": 953,
      "Ġpresent": 954,
      "Ġpower": 955,
      "rib": 956,
      "edi": 957,
      "ular": 958,
      "Ġsilver": 959,
      "ons": 960,
      "Ġcoin": 961,
      "Ġwar": 962,
      "Ġdirect": 963,
      "Ġnecess": 964,
      "Ġgiv": 965,
      "merc": 966,
      "hen": 967,
      "Ġeven": 968,
      "ful": 969,
      "ivid": 970,
      "Ġcirculation": 971,
      "mercial": 972,
      "Ġborrow": 973,
      "Ġpe": 974,
      "HE": 975,
      "ger": 976,
      "oard": 977,
      "ably": 978,
      "Ġ191": 979,
      "ES": 980,
      "Ġfollow": 981,
      "fter": 982,
      "ged": 983,
      "Ġperiod": 984,
      "Ġlike": 985,
      "Ġcustom": 986,
      "ĠBut": 987,
      "Ġdes": 988,
      "sp": 989,
      "Ġevery": 990,
      "ption": 991,
      "Ġbecause": 992,
      "ered": 993,
      "ince": 994,
      "ouse": 995,
      "Ġnum": 996,
      "iss": 997,
      "oy": 998,
      "Ġstandard": 999,
      "Ġpublic": 1000,
      "llar": 1001,
      "oth": 1002,
      "Ġgr": 1003,
      "Ġcond": 1004,
      "Ġdollar": 1005,
      "Ġcould": 1006,
      "Ġem": 1007,
      "self": 1008,
      "Ġcertain": 1009,
      "Ġhowever": 1010,
      "Ġbonds": 1011,
      "ON": 1012,
      "Ġoper": 1013,
      "Ġnational": 1014,
      "ently": 1015,
      "Ġke": 1016,
      "ating": 1017,
      "ite": 1018,
      "ople": 1019,
      "ĠGovernment": 1020,
      "Ġbuy": 1021,
      "Ġchec": 1022,
      "Ġthen": 1023,
      "Ġbal": 1024,
      "Ġset": 1025,
      "which": 1026,
      "Ġwithout": 1027,
      "Ġmeans": 1028,
      "Ġpurchas": 1029,
      "In": 1030,
      "itions": 1031,
      "Ġcor": 1032,
      "Ġnow": 1033,
      "IN": 1034,
      "ired": 1035,
      "Ġwhat": 1036,
      "Ġdoes": 1037,
      "Ġconsider": 1038,
      "Ġagainst": 1039,
      "Ġop": 1040,
      "Ġbankers": 1041,
      "Ġsupply": 1042,
      "Ġfinancial": 1043,
      "reasury": 1044,
      "less": 1045,
      "Ġlong": 1046,
      "Ġrates": 1047,
      "Ġresult": 1048,
      "ĠFr": 1049,
      "Ġwhere": 1050,
      "erves": 1051,
      "oci": 1052,
      "ilities": 1053,
      "ĠOF": 1054,
      "velop": 1055,
      "por": 1056,
      "Ġ5": 1057,
      "Ġtend": 1058,
      "ason": 1059,
      "Ġfarm": 1060,
      "sh": 1061,
      "ures": 1062,
      "Ġrep": 1063,
      "Ġsavings": 1064,
      "Ġass": 1065,
      "ourse": 1066,
      "anies": 1067,
      "ural": 1068,
      "el": 1069,
      "ia": 1070,
      "ways": 1071,
      "Ġinf": 1072,
      "Ġtake": 1073,
      "Ġpract": 1074,
      "Ġinstitut": 1075,
      "Ġfall": 1076,
      ".\"": 1077,
      "Ġsell": 1078,
      "Ġfunds": 1079,
      "its": 1080,
      "Ġthus": 1081,
      "Ġear": 1082,
      "Ġcar": 1083,
      "Ġev": 1084,
      "ages": 1085,
      "Ġsecurities": 1086,
      "Ġdiffere": 1087,
      "ving": 1088,
      "Ġloc": 1089,
      "ffic": 1090,
      "Ġcall": 1091,
      "ished": 1092,
      "Ġpeople": 1093,
      "read": 1094,
      "Ġpaid": 1095,
      "Ġprob": 1096,
      "rict": 1097,
      "Ġcountries": 1098,
      "cess": 1099,
      "Ġ6": 1100,
      "ĠCom": 1101,
      "ought": 1102,
      "ave": 1103,
      "most": 1104,
      "ĠAs": 1105,
      "ceed": 1106,
      "ward": 1107,
      "ack": 1108,
      "ok": 1109,
      "ither": 1110,
      "road": 1111,
      "TI": 1112,
      "ves": 1113,
      "int": 1114,
      "Ġbefore": 1115,
      "Ġwell": 1116,
      "itu": 1117,
      "ency": 1118,
      "Ġhold": 1119,
      "Ġnote": 1120,
      "Ġcommercial": 1121,
      "Ġresp": 1122,
      "ized": 1123,
      "Ġatt": 1124,
      "by": 1125,
      "bers": 1126,
      "Ġpers": 1127,
      "Ġtimes": 1128,
      "ient": 1129,
      "Ġret": 1130,
      "Ġorder": 1131,
      "dis": 1132,
      "fact": 1133,
      "tle": 1134,
      "Ġmain": 1135,
      "sum": 1136,
      "conom": 1137,
      "Ġbas": 1138,
      "olum": 1139,
      "Ġmeet": 1140,
      "ĠFrance": 1141,
      "with": 1142,
      "Ġterm": 1143,
      "Ġhim": 1144,
      "orld": 1145,
      "anches": 1146,
      "Ġadd": 1147,
      "Ġused": 1148,
      "Ġimportant": 1149,
      "aus": 1150,
      "fin": 1151,
      "Ġcourse": 1152,
      "Ġdevelop": 1153,
      "ĠPro": 1154,
      "Ġlegal": 1155,
      "ten": 1156,
      "ĠThere": 1157,
      "ending": 1158,
      "ĠAmerican": 1159,
      "Ġnumber": 1160,
      "+--------": 1161,
      "ple": 1162,
      "Ġpoint": 1163,
      "Ġwhile": 1164,
      "ability": 1165,
      "pose": 1166,
      "Ġsc": 1167,
      "ived": 1168,
      "ricult": 1169,
      "aken": 1170,
      "Ġkn": 1171,
      ".,": 1172,
      "ian": 1173,
      "form": 1174,
      "Ġmight": 1175,
      "Ġduring": 1176,
      "ĠĠĠĠĠĠ": 1177,
      "Ġreal": 1178,
      "Ġrat": 1179,
      "Ġdraf": 1180,
      "Ġlim": 1181,
      "unity": 1182,
      "iew": 1183,
      "li": 1184,
      "tr": 1185,
      "orm": 1186,
      "ĠNo": 1187,
      "ĠGerm": 1188,
      "ief": 1189,
      "cur": 1190,
      "ually": 1191,
      "banks": 1192,
      "hat": 1193,
      "Ġsim": 1194,
      "Ġfinance": 1195,
      ",\"": 1196,
      "fer": 1197,
      "Ġhigh": 1198,
      "Ġreason": 1199,
      "Ġexist": 1200,
      "Ġproper": 1201,
      "Ġestabl": 1202,
      "ically": 1203,
      "Ġexam": 1204,
      "ety": 1205,
      "estion": 1206,
      "Ġseem": 1207,
      "Ġfind": 1208,
      "ploy": 1209,
      "Ġ190": 1210,
      "Ġtransact": 1211,
      "Ġmonth": 1212,
      "Ġconditions": 1213,
      "olume": 1214,
      "ri": 1215,
      "Ġpp": 1216,
      "ection": 1217,
      "Ġshall": 1218,
      "Ġgiven": 1219,
      "nce": 1220,
      "Ġboth": 1221,
      "Ġsince": 1222,
      "ised": 1223,
      "Ġcompanies": 1224,
      "Ġextent": 1225,
      "Ġafter": 1226,
      "gin": 1227,
      "Ġdou": 1228,
      "ortg": 1229,
      "ially": 1230,
      "Ġsum": 1231,
      "Ġreserves": 1232,
      "EN": 1233,
      "af": 1234,
      "ud": 1235,
      "Ġway": 1236,
      "Ġpayment": 1237,
      "ission": 1238,
      "ax": 1239,
      "ved": 1240,
      "Ġpol": 1241,
      "...": 1242,
      "portion": 1243,
      "te": 1244,
      "ants": 1245,
      "hold": 1246,
      "tific": 1247,
      "urop": 1248,
      "Ġfound": 1249,
      "Ġbel": 1250,
      "ately": 1251,
      "urope": 1252,
      "Ġworld": 1253,
      "Ġdue": 1254,
      "Ġwhole": 1255,
      "Ġplace": 1256,
      "Ġprev": 1257,
      "Ġlocal": 1258,
      "It": 1259,
      "Ġexport": 1260,
      "Ġgover": 1261,
      "Ġvar": 1262,
      "ittle": 1263,
      "Ġnecessary": 1264,
      "me": 1265,
      "Ġend": 1266,
      "ale": 1267,
      "Ġmer": 1268,
      "selves": 1269,
      "Ġpossible": 1270,
      "Ġsom": 1271,
      "Ġfew": 1272,
      "Ġexcept": 1273,
      "Ġtherefore": 1274,
      "Ġbranches": 1275,
      "dra": 1276,
      "Ġstill": 1277,
      "orth": 1278,
      "Ġdrawn": 1279,
      "way": 1280,
      "sequ": 1281,
      "Ġusu": 1282,
      "Ġ187": 1283,
      "Ġget": 1284,
      "Ġbanker": 1285,
      "akes": 1286,
      "ĠWe": 1287,
      "Ġ189": 1288,
      "ization": 1289,
      "Ġrail": 1290,
      "Ġpriv": 1291,
      "ared": 1292,
      "led": 1293,
      "Ġvolume": 1294,
      "min": 1295,
      "tim": 1296,
      "Ġel": 1297,
      "Ġemploy": 1298,
      "18": 1299,
      "IT": 1300,
      "ning": 1301,
      "rent": 1302,
      "Ġpayments": 1303,
      "Ġprovid": 1304,
      "ood": 1305,
      "Ġnat": 1306,
      "Ġamong": 1307,
      "Ġclass": 1308,
      "Ġclearing": 1309,
      "ral": 1310,
      "Ġco": 1311,
      "urther": 1312,
      "ĠTHE": 1313,
      "etary": 1314,
      "Ġregard": 1315,
      "Ġcris": 1316,
      "uth": 1317,
      "man": 1318,
      "ĠEurope": 1319,
      "Ġkeep": 1320,
      "ton": 1321,
      "ret": 1322,
      "Ġcompany": 1323,
      "Ġsubject": 1324,
      "Ġrequire": 1325,
      "pid": 1326,
      "ision": 1327,
      "stand": 1328,
      "ident": 1329,
      "Ġcontin": 1330,
      "AL": 1331,
      "pr": 1332,
      "tal": 1333,
      "alf": 1334,
      "ĠThey": 1335,
      "Ġquant": 1336,
      "Ġcontract": 1337,
      "Ġinflu": 1338,
      "Ġinstitutions": 1339,
      "hing": 1340,
      "ness": 1341,
      "sc": 1342,
      "ull": 1343,
      "Ġmen": 1344,
      "Ġthree": 1345,
      "Ġexchan": 1346,
      "Ġorgan": 1347,
      "ources": 1348,
      "Ġalways": 1349,
      "money": 1350,
      "ense": 1351,
      "Ġserv": 1352,
      "Ġeconom": 1353,
      "Ġrest": 1354,
      "Ġitself": 1355,
      "ĠTreasury": 1356,
      "Ġpurpose": 1357,
      "Ġoffic": 1358,
      "Ġtotal": 1359,
      "Ġlat": 1360,
      "Ġlittle": 1361,
      "ended": 1362,
      "ĠCh": 1363,
      "Ġyour": 1364,
      "ĠOn": 1365,
      "Ġlarger": 1366,
      "Ġequal": 1367,
      "ividual": 1368,
      "oper": 1369,
      "ĊĠĠĠĠĠĠĠĠĠĠĠĠĠĠĠĠ": 1370,
      "Ġcoll": 1371,
      "Ġmaking": 1372,
      "ention": 1373,
      "Ġdebt": 1374,
      "Ġrise": 1375,
      "-+--------": 1376,
      "Ġturn": 1377,
      "anad": 1378,
      "icult": 1379,
      "Ġdisc": 1380,
      "Ġincreased": 1381,
      "incip": 1382,
      "Ġkind": 1383,
      "ribut": 1384,
      "ead": 1385,
      "ran": 1386,
      "Ġcaus": 1387,
      "Ġanother": 1388,
      "Ġland": 1389,
      "ists": 1390,
      "ĠRe": 1391,
      "ĠBanks": 1392,
      "Ġsecurity": 1393,
      "Ġrec": 1394,
      "Ġ10": 1395,
      "ends": 1396,
      "posed": 1397,
      "Ġdollars": 1398,
      "hod": 1399,
      "ĠV": 1400,
      "Ġocc": 1401,
      "als": 1402,
      "verage": 1403,
      "Ġcannot": 1404,
      "Ġplac": 1405,
      "ANK": 1406,
      "land": 1407,
      "up": 1408,
      "Ġput": 1409,
      "Ġmill": 1410,
      "Ġmortg": 1411,
      "arily": 1412,
      "Ġunt": 1413,
      "Ġterms": 1414,
      "dem": 1415,
      "ured": 1416,
      "ĊĠĠĠ": 1417,
      "inary": 1418,
      "rec": 1419,
      "Ġindustry": 1420,
      "Ġmember": 1421,
      "requ": 1422,
      "Ġsay": 1423,
      "Ġsaid": 1424,
      "idence": 1425,
      "Ġris": 1426,
      "comm": 1427,
      "Ġcustomers": 1428,
      "air": 1429,
      "Ġsur": 1430,
      "ĠĠĠĠĠĠĠ": 1431,
      "Ġproportion": 1432,
      "Ġdifferent": 1433,
      "TION": 1434,
      "rong": 1435,
      "Ġagricult": 1436,
      "Ġrequired": 1437,
      "Ġprofits": 1438,
      "Ġeither": 1439,
      "Ġquestion": 1440,
      "ĠEnglish": 1441,
      "lo": 1442,
      "rial": 1443,
      "Ġcost": 1444,
      "Ġfail": 1445,
      "ents": 1446,
      "acter": 1447,
      "Ġable": 1448,
      "Ġmembers": 1449,
      "lect": 1450,
      "Ġalmost": 1451,
      "Ġsaf": 1452,
      "Ġdeal": 1453,
      "Ġhaving": 1454,
      "Ġshow": 1455,
      "Ġview": 1456,
      "tained": 1457,
      "Ġchange": 1458,
      "Ġperson": 1459,
      "Ġreturn": 1460,
      "discount": 1461,
      "19": 1462,
      "OR": 1463,
      "Ġpres": 1464,
      "Ġpass": 1465,
      "Ġeas": 1466,
      "Ġloss": 1467,
      "Ġredu": 1468,
      "Ġconc": 1469,
      "blig": 1470,
      "Ġenter": 1471,
      "tificates": 1472,
      "10": 1473,
      "50": 1474,
      "Th": 1475,
      "has": 1476,
      "ted": 1477,
      "ĠAct": 1478,
      "resp": 1479,
      "ĠBoard": 1480,
      "Ġsee": 1481,
      "Ġcompet": 1482,
      "Ġgreater": 1483,
      "ixed": 1484,
      "Ġcheck": 1485,
      "ND": 1486,
      "icular": 1487,
      "Ġlast": 1488,
      "ĠFor": 1489,
      "Ġthemselves": 1490,
      "Ġindividual": 1491,
      "Ġopen": 1492,
      "medi": 1493,
      "iner": 1494,
      "Ġpar": 1495,
      "abilities": 1496,
      "ccess": 1497,
      "ipp": 1498,
      "Ġoften": 1499,
      "Ġpos": 1500,
      "ĠCanad": 1501,
      "Ġbecome": 1502,
      "Ġbalances": 1503,
      "ling": 1504,
      "Ġ7": 1505,
      "Ġread": 1506,
      "Ġcommod": 1507,
      "deposit": 1508,
      "Ġrapid": 1509,
      "ernational": 1510,
      "ience": 1511,
      "mitt": 1512,
      "Ġtaken": 1513,
      "Ġmove": 1514,
      "Ġlevel": 1515,
      "Ġdraw": 1516,
      "holders": 1517,
      "uthor": 1518,
      "Ġav": 1519,
      "Ġgrow": 1520,
      "Ġplan": 1521,
      "Ġcommunity": 1522,
      "comp": 1523,
      "Ġmatter": 1524,
      "Ġmethod": 1525,
      "Ġjust": 1526,
      "Ġfarmers": 1527,
      "io": 1528,
      "Ġaverage": 1529,
      "reg": 1530,
      "Ġconst": 1531,
      "ĠWhen": 1532,
      "Ġprincip": 1533,
      "Ġproduct": 1534,
      "Ġuntil": 1535,
      "OT": 1536,
      "ected": 1537,
      "Ġleast": 1538,
      "ield": 1539,
      "Ġmerch": 1540,
      "Ġprom": 1541,
      "Ġhig": 1542,
      "Ġhouse": 1543,
      "Ġnever": 1544,
      "aps": 1545,
      "Ġtrue": 1546,
      "Ġabs": 1547,
      "ell": 1548,
      "ink": 1549,
      "anic": 1550,
      "Ġcities": 1551,
      "set": 1552,
      "Ġshort": 1553,
      "Ġdifficult": 1554,
      "Ġrepresent": 1555,
      "ready": 1556,
      "AR": 1557,
      "here": 1558,
      "Ġmin": 1559,
      "outh": 1560,
      "Ġlow": 1561,
      "Ġ186": 1562,
      "Ġgovernment": 1563,
      "._,": 1564,
      "cot": 1565,
      "Ġaff": 1566,
      "Ġfree": 1567,
      "Ġfederal": 1568,
      "Ġthough": 1569,
      "Ġbegin": 1570,
      "ĠBANK": 1571,
      "avor": 1572,
      "Ġproduction": 1573,
      "Ġadvant": 1574,
      "acc": 1575,
      "cer": 1576,
      "Ġtoo": 1577,
      "ĠThese": 1578,
      "olut": 1579,
      "early": 1580,
      "Ġmeas": 1581,
      "plus": 1582,
      "Ġissued": 1583,
      "Ġcurrent": 1584,
      "Ġsomet": 1585,
      "Ġfurther": 1586,
      "Ġann": 1587,
      "their": 1588,
      "anted": 1589,
      "cont": 1590,
      "Ġspecial": 1591,
      "Ġremain": 1592,
      "Ġrespect": 1593,
      "fess": 1594,
      "mber": 1595,
      "Ġser": 1596,
      "ĠInd": 1597,
      "Ġhere": 1598,
      "Ġcharacter": 1599,
      "Ġchecks": 1600,
      "ED": 1601,
      "business": 1602,
      "ild": 1603,
      "pec": 1604,
      "Ġmedi": 1605,
      "Ġlab": 1606,
      "ĠState": 1607,
      "Ġparticular": 1608,
      "atively": 1609,
      "ording": 1610,
      "100": 1611,
      "gu": 1612,
      "would": 1613,
      "Ġcause": 1614,
      "Ġday": 1615,
      "ives": 1616,
      "Ġheld": 1617,
      "ĊĊĠĠĠĠ": 1618,
      "ext": 1619,
      "ĠGermany": 1620,
      "._": 1621,
      "Ġold": 1622,
      "Ġfour": 1623,
      "Ġref": 1624,
      "rain": 1625,
      "Ġtransactions": 1626,
      "just": 1627,
      "ender": 1628,
      "ouses": 1629,
      "Ġentire": 1630,
      "ituation": 1631,
      "Ġusually": 1632,
      "Ġprivate": 1633,
      "Ġconcern": 1634,
      "CH": 1635,
      "lin": 1636,
      "Ġpanic": 1637,
      "Ġconsequ": 1638,
      "poss": 1639,
      "ongress": 1640,
      "Ġactual": 1641,
      "Ġindustrial": 1642,
      "Ġaddition": 1643,
      "Ġpolic": 1644,
      "Ġquantity": 1645,
      "25": 1646,
      "have": 1647,
      "Ġdays": 1648,
      "Ġconf": 1649,
      "Ġreceived": 1650,
      "fficient": 1651,
      "Ġknow": 1652,
      "Ġdrafts": 1653,
      "reci": 1654,
      "Ġposition": 1655,
      "aris": 1656,
      "Ġdef": 1657,
      "ĠAND": 1658,
      "lud": 1659,
      "Ġcertificates": 1660,
      "Ġdevelopment": 1661,
      "Ġlimit": 1662,
      "Ġcrisis": 1663,
      "TER": 1664,
      "ble": 1665,
      "haps": 1666,
      "low": 1667,
      "Ġtax": 1668,
      "Ġaffect": 1669,
      "Ġoblig": 1670,
      "Ġmod": 1671,
      "Ġmakes": 1672,
      "omin": 1673,
      "Ġgive": 1674,
      "Ġexper": 1675,
      "Ġsuccess": 1676,
      "Ġcontro": 1677,
      "Ġaccounts": 1678,
      "Ġcalled": 1679,
      "les": 1680,
      "ene": 1681,
      "Ġsix": 1682,
      "Ġfixed": 1683,
      "Ġshare": 1684,
      "Ġdepositors": 1685,
      "Ġenough": 1686,
      "Ġdoubt": 1687,
      "THE": 1688,
      "lation": 1689,
      "Ġmach": 1690,
      "Ġne": 1691,
      "Ġallow": 1692,
      "ING": 1693,
      "og": 1694,
      "Ġins": 1695,
      "alth": 1696,
      "Ġdeb": 1697,
      "Ġwithin": 1698,
      "ĠAt": 1699,
      "ĠBrit": 1700,
      "berg": 1701,
      "ize": 1702,
      "Ġinfluence": 1703,
      "circ": 1704,
      "den": 1705,
      "lic": 1706,
      "part": 1707,
      "atis": 1708,
      "uten": 1709,
      "Ġdecl": 1710,
      "ulating": 1711,
      "Ġsusp": 1712,
      "Ġright": 1713,
      "Ġincreasing": 1714,
      "Ġgenerally": 1715,
      "been": 1716,
      "Ġbalance": 1717,
      "Ġcarry": 1718,
      "ph": 1719,
      "pric": 1720,
      "Ġauthor": 1721,
      "ines": 1722,
      "Ġdid": 1723,
      "imes": 1724,
      "ified": 1725,
      "Ġinternational": 1726,
      "iously": 1727,
      "Ġmonths": 1728,
      "capital": 1729,
      "day": 1730,
      "iver": 1731,
      "Ġbo": 1732,
      "Ġdone": 1733,
      "imin": 1734,
      "Ġprocess": 1735,
      "Ġcome": 1736,
      "poses": 1737,
      "exchange": 1738,
      "Ġappro": 1739,
      "Ġbetter": 1740,
      "Ġordinary": 1741,
      "Ġoperations": 1742,
      "Ġexchanges": 1743,
      "Ġagricultural": 1744,
      "inery": 1745,
      "utenberg": 1746,
      "),": 1747,
      "ms": 1748,
      "val": 1749,
      "Ġ8": 1750,
      "Ġpop": 1751,
      "ctions": 1752,
      "Ġonce": 1753,
      "Ġstrong": 1754,
      "ĠNational": 1755,
      "Ġimmedi": 1756,
      "Ġsettle": 1757,
      "St": 1758,
      "credit": 1759,
      "Ġfun": 1760,
      "ices": 1761,
      "there": 1762,
      "tern": 1763,
      "ears": 1764,
      "ailable": 1765,
      "Ġproperty": 1766,
      "ares": 1767,
      "sbank": 1768,
      "tic": 1769,
      "issu": 1770,
      "omes": 1771,
      "stock": 1772,
      "Ġnearly": 1773,
      "veral": 1774,
      "Ġdec": 1775,
      "ichsbank": 1776,
      "iving": 1777,
      "Ġvalu": 1778,
      "clus": 1779,
      "Ġpurchase": 1780,
      "Ġbasis": 1781,
      "Ġseems": 1782,
      "Ġpolicy": 1783,
      ".[": 1784,
      "Ġ9": 1785,
      "Ġback": 1786,
      "Ġcrop": 1787,
      "ĠSouth": 1788,
      "ibility": 1789,
      "ĠHe": 1790,
      "Ġlaws": 1791,
      "Ġchanges": 1792,
      "Ġcorpor": 1793,
      "Ġconsiderable": 1794,
      "Ġ...": 1795,
      "erial": 1796,
      "Ġcity": 1797,
      "ĠĠĠĠĠ": 1798,
      "app": 1799,
      "Ġship": 1800,
      "Ġquite": 1801,
      "Ġestablish": 1802,
      "range": 1803,
      "Ġpost": 1804,
      "Ġdeter": 1805,
      "igin": 1806,
      "Ġru": 1807,
      "though": 1808,
      "Ġyet": 1809,
      "Ġothers": 1810,
      "Ġalready": 1811,
      "Ġcentral": 1812,
      "Ġoffice": 1813,
      "Ġrather": 1814,
      "16": 1815,
      "Ġcare": 1816,
      "Ġfac": 1817,
      "sets": 1818,
      "Ġgu": 1819,
      "ĠCongress": 1820,
      "Ġchief": 1821,
      "Ġabroad": 1822,
      "Ġcredits": 1823,
      "produ": 1824,
      "Ġimportance": 1825,
      "Ġhands": 1826,
      "Ġobtain": 1827,
      "Ġdirectors": 1828,
      "Ġprobably": 1829,
      "14": 1830,
      "equ": 1831,
      "hip": 1832,
      "more": 1833,
      "ried": 1834,
      "ufact": 1835,
      "Â£": 1836,
      "Ġ[": 1837,
      "Ġlend": 1838,
      "Ġher": 1839,
      "astic": 1840,
      "Ġissues": 1841,
      "rises": 1842,
      "Ġassoci": 1843,
      "respond": 1844,
      "Ġmedium": 1845,
      "house": 1846,
      "Ġsituation": 1847,
      "Ġdivid": 1848,
      "ird": 1849,
      "Ġexpl": 1850,
      "ulated": 1851,
      "uss": 1852,
      "endent": 1853,
      "Ġabove": 1854,
      "increas": 1855,
      "ĠAmerica": 1856,
      "Ġlikely": 1857,
      "Ġoperation": 1858,
      "time": 1859,
      "Ġprovided": 1860,
      "Ġsurplus": 1861,
      "17": 1862,
      "ST": 1863,
      "ring": 1864,
      "will": 1865,
      "espec": 1866,
      "stitut": 1867,
      "Ġresources": 1868,
      "ĠEx": 1869,
      "ittee": 1870,
      "Ġmanag": 1871,
      "Ġreceive": 1872,
      "Ġhigher": 1873,
      "Ġmeasure": 1874,
      "ATION": 1875,
      "gold": 1876,
      "lar": 1877,
      "ration": 1878,
      "Ġro": 1879,
      "ism": 1880,
      "orn": 1881,
      "oup": 1882,
      "Ġhouses": 1883,
      "Ġrecent": 1884,
      "Ġrun": 1885,
      "Ġpossess": 1886,
      "Ġfollowing": 1887,
      "Ġcommodities": 1888,
      "12": 1889,
      "cas": 1890,
      "sper": 1891,
      "vest": 1892,
      "was": 1893,
      "Ġworth": 1894,
      "Ġfull": 1895,
      "Ġthings": 1896,
      "imum": 1897,
      "ading": 1898,
      "Ġexceed": 1899,
      "ilar": 1900,
      "ĠYes": 1901,
      "cons": 1902,
      "luct": 1903,
      "Ġestate": 1904,
      "Ġmonetary": 1905,
      "interest": 1906,
      "Ġmaintain": 1907,
      "-+---------+--------": 1908,
      "Ġcauses": 1909,
      "fessor": 1910,
      "Ġmachinery": 1911,
      "13": 1912,
      "from": 1913,
      "ging": 1914,
      "ium": 1915,
      "mission": 1916,
      "Ġboard": 1917,
      "Ġfig": 1918,
      "Ġreport": 1919,
      "Ġformer": 1920,
      "ĠTo": 1921,
      "gether": 1922,
      "this": 1923,
      "Ġwhether": 1924,
      "Ġseveral": 1925,
      "ago": 1926,
      "Ġcases": 1927,
      "ĠThat": 1928,
      "Ġliabilities": 1929,
      "Ġprim": 1930,
      "ension": 1931,
      "Ġlatter": 1932,
      "This": 1933,
      "bec": 1934,
      "Ġside": 1935,
      "Ġfee": 1936,
      "Ġperhaps": 1937,
      "ĠCity": 1938,
      "ĠMr": 1939,
      "exp": 1940,
      "Ġclose": 1941,
      "Ġinvestment": 1942,
      "66": 1943,
      "aim": 1944,
      "anch": 1945,
      "uture": 1946,
      "Ġassets": 1947,
      "owers": 1948,
      "ansion": 1949,
      "ĠWhat": 1950,
      "Ġsecure": 1951,
      "Ġsecured": 1952,
      "Ġcommon": 1953,
      "Ġinvol": 1954,
      "Ġexpress": 1955,
      "Ġbranch": 1956,
      "Ġobject": 1957,
      "Ġearn": 1958,
      "Ġvarious": 1959,
      "standing": 1960,
      "especially": 1961,
      "15": 1962,
      "ault": 1963,
      "gree": 1964,
      "ob": 1965,
      "pay": 1966,
      "arm": 1967,
      "enty": 1968,
      "Ġhalf": 1969,
      "ĠAnd": 1970,
      "ĠScot": 1971,
      "Ġado": 1972,
      "Ġsecond": 1973,
      "ĠDo": 1974,
      "Ġestablished": 1975,
      "Ġsafe": 1976,
      "mitted": 1977,
      "possible": 1978,
      "par": 1979,
      "ened": 1980,
      "Ġwhose": 1981,
      "Ġprot": 1982,
      "Ġhapp": 1983,
      "position": 1984,
      "Ġcomple": 1985,
      "reated": 1986,
      "Ġaccom": 1987,
      "Ġrestrict": 1988,
      "ĠReichsbank": 1989,
      "Ġmortgage": 1990,
      "As": 1991,
      "ĠK": 1992,
      "Ġword": 1993,
      "icago": 1994,
      "Ġlower": 1995,
      "vere": 1996,
      "ĠIs": 1997,
      "Ġcommittee": 1998,
      "Ġadvance": 1999,
      "Ġlegis": 2000,
      "Ġbased": 2001,
      "tender": 2002,
      "ional": 2003,
      "Ġhard": 2004,
      "etall": 2005,
      "atever": 2006,
      "ife": 2007,
      "ody": 2008,
      "undred": 2009,
      "ĠDe": 2010,
      "Ġ1914": 2011,
      "ĠEuropean": 2012,
      "Ġcontinu": 2013,
      "Ġserious": 2014,
      "crib": 2015,
      "mark": 2016,
      "ner": 2017,
      "ting": 2018,
      "Ġten": 2019,
      "Ġsoci": 2020,
      "Ġdown": 2021,
      "Ġhome": 2022,
      "otton": 2023,
      "them": 2024,
      "they": 2025,
      "Ġassum": 2026,
      "Ġconn": 2027,
      "ĠAd": 2028,
      "ember": 2029,
      "pted": 2030,
      "Ġinter": 2031,
      "amount": 2032,
      "Ġmanufact": 2033,
      "Ġcoins": 2034,
      "Ġratio": 2035,
      "Ġrequirements": 2036,
      "Ġeconomic": 2037,
      "Ġoccas": 2038,
      "Ġplaced": 2039,
      "ĠBritish": 2040,
      "where": 2041,
      "ences": 2042,
      "Ġpast": 2043,
      "Ġmere": 2044,
      "Ġet": 2045,
      "rok": 2046,
      "Ġexcess": 2047
    },
    "merges": [
      [
        "Ġ",
        "t"
      ],
      [
        "h",
        "e"
      ],
      [
        "Ġ",
        "a"
      ],
      [
        "i",
        "n"
      ],
      [
        "Ġt",
        "he"
      ],
      [
        "Ġ",
        "o"
      ],
      [
        "r",
        "e"
      ],
      [
        "e",
        "r"
      ],
      [
        "a",
        "n"
      ],
      [
        "Ġ",
        "b"
      ],
      [
        "o",
        "n"
      ],
      [
        "Ġo",
        "f"
      ],
      [
        "i",
        "t"
      ],
      [
        "Ġ",
        "c"
      ],
      [
        "a",
        "t"
      ],
      [
        "e",
        "n"
      ],
      [
        "Ġ",
        "Ġ"
      ],
      [
        "e",
        "s"
      ],
      [
        "Ġ",
        "s"
      ],
      [
        "i",
        "s"
      ],
      [
        "Ġ",
        "w"
      ],
      [
        "Ġ",
        "in"
      ],
      [
        "Ġ",
        "p"
      ],
      [
        "o",
        "r"
      ],
      [
        "Ġ",
        "f"
      ],
      [
        "a",
        "l"
      ],
      [
        "e",
        "d"
      ],
      [
        "Ġ",
        "m"
      ],
      [
        "Ġa",
        "n"
      ],
      [
        "Ġt",
        "o"
      ],
      [
        "a",
        "r"
      ],
      [
        "o",
        "u"
      ],
      [
        "in",
        "g"
      ],
      [
        "i",
        "on"
      ],
      [
        "i",
        "c"
      ],
      [
        "Ġ",
        "d"
      ],
      [
        "Ġan",
        "d"
      ],
      [
        "a",
        "s"
      ],
      [
        "Ġt",
        "h"
      ],
      [
        "en",
        "t"
      ],
      [
        "Ġ",
        "h"
      ],
      [
        "o",
        "m"
      ],
      [
        "s",
        "t"
      ],
      [
        "l",
        "y"
      ],
      [
        "ĠĠ",
        "ĠĠ"
      ],
      [
        "Ġ",
        "n"
      ],
      [
        "Ġ",
        "e"
      ],
      [
        "Ġ",
        "l"
      ],
      [
        "Ġb",
        "e"
      ],
      [
        "an",
        "k"
      ],
      [
        "Ġ",
        "re"
      ],
      [
        "c",
        "t"
      ],
      [
        "v",
        "e"
      ],
      [
        "Ġ",
        "is"
      ],
      [
        "l",
        "l"
      ],
      [
        "l",
        "e"
      ],
      [
        "r",
        "o"
      ],
      [
        "c",
        "e"
      ],
      [
        "o",
        "t"
      ],
      [
        "u",
        "r"
      ],
      [
        "s",
        "e"
      ],
      [
        "Ġ",
        "g"
      ],
      [
        "Ġb",
        "ank"
      ],
      [
        "Ġ",
        "it"
      ],
      [
        "l",
        "d"
      ],
      [
        "Ġf",
        "or"
      ],
      [
        "at",
        "ion"
      ],
      [
        "-",
        "-"
      ],
      [
        "c",
        "h"
      ],
      [
        "Ġo",
        "n"
      ],
      [
        "Ġw",
        "h"
      ],
      [
        "u",
        "t"
      ],
      [
        "t",
        "he"
      ],
      [
        "Ġth",
        "at"
      ],
      [
        "v",
        "er"
      ],
      [
        "Ġ",
        "T"
      ],
      [
        "i",
        "m"
      ],
      [
        "Ġa",
        "s"
      ],
      [
        "n",
        "t"
      ],
      [
        "a",
        "y"
      ],
      [
        "Ġ",
        "u"
      ],
      [
        "Ġd",
        "e"
      ],
      [
        "a",
        "d"
      ],
      [
        "i",
        "r"
      ],
      [
        "Ġb",
        "y"
      ],
      [
        "Ġe",
        "x"
      ],
      [
        "an",
        "d"
      ],
      [
        "i",
        "d"
      ],
      [
        "e",
        "t"
      ],
      [
        "m",
        "ent"
      ],
      [
        "es",
        "s"
      ],
      [
        "Ġn",
        "ot"
      ],
      [
        "g",
        "e"
      ],
      [
        "ic",
        "h"
      ],
      [
        "Ġo",
        "r"
      ],
      [
        "o",
        "w"
      ],
      [
        "0",
        "0"
      ],
      [
        "it",
        "h"
      ],
      [
        "u",
        "l"
      ],
      [
        "er",
        "s"
      ],
      [
        "ou",
        "nt"
      ],
      [
        "i",
        "ll"
      ],
      [
        "at",
        "e"
      ],
      [
        "re",
        "d"
      ],
      [
        "Ġwh",
        "ich"
      ],
      [
        "i",
        "l"
      ],
      [
        "Ġ",
        "I"
      ],
      [
        "Ġc",
        "on"
      ],
      [
        "a",
        "b"
      ],
      [
        "Ġs",
        "u"
      ],
      [
        "Ġa",
        "re"
      ],
      [
        "ĠT",
        "he"
      ],
      [
        "i",
        "g"
      ],
      [
        "r",
        "a"
      ],
      [
        "Ġp",
        "ro"
      ],
      [
        "o",
        "s"
      ],
      [
        "Ġw",
        "ith"
      ],
      [
        "Ġs",
        "t"
      ],
      [
        "n",
        "d"
      ],
      [
        "i",
        "es"
      ],
      [
        "o",
        "re"
      ],
      [
        "q",
        "u"
      ],
      [
        "u",
        "s"
      ],
      [
        "ĠĠĠĠ",
        "ĠĠĠĠ"
      ],
      [
        "Ġ",
        "1"
      ],
      [
        "or",
        "t"
      ],
      [
        "Ġw",
        "e"
      ],
      [
        "u",
        "st"
      ],
      [
        "Ġc",
        "om"
      ],
      [
        "Ġ",
        "A"
      ],
      [
        "i",
        "f"
      ],
      [
        "Ġ",
        "S"
      ],
      [
        "Ġg",
        "o"
      ],
      [
        "Ġh",
        "a"
      ],
      [
        "on",
        "e"
      ],
      [
        "re",
        "s"
      ],
      [
        "Ġ",
        "B"
      ],
      [
        "it",
        "y"
      ],
      [
        "ou",
        "ld"
      ],
      [
        "e",
        "c"
      ],
      [
        "Ġbank",
        "s"
      ],
      [
        "e",
        "m"
      ],
      [
        "Ġa",
        "t"
      ],
      [
        "a",
        "p"
      ],
      [
        "a",
        "in"
      ],
      [
        "Ġha",
        "ve"
      ],
      [
        "Ġ",
        "r"
      ],
      [
        "es",
        "t"
      ],
      [
        "r",
        "om"
      ],
      [
        "e",
        "ct"
      ],
      [
        "t",
        "h"
      ],
      [
        "o",
        "d"
      ],
      [
        "the",
        "r"
      ],
      [
        "en",
        "d"
      ],
      [
        "one",
        "y"
      ],
      [
        "e",
        "w"
      ],
      [
        "i",
        "v"
      ],
      [
        "p",
        "os"
      ],
      [
        "r",
        "ic"
      ],
      [
        "Ġre",
        "s"
      ],
      [
        "an",
        "t"
      ],
      [
        "a",
        "k"
      ],
      [
        "s",
        "u"
      ],
      [
        "i",
        "ve"
      ],
      [
        "Ġw",
        "as"
      ],
      [
        "p",
        "t"
      ],
      [
        ".",
        "."
      ],
      [
        "Ġin",
        "t"
      ],
      [
        "i",
        "al"
      ],
      [
        "Ġp",
        "er"
      ],
      [
        "p",
        "p"
      ],
      [
        "an",
        "ce"
      ],
      [
        "Ġth",
        "is"
      ],
      [
        "Ġh",
        "as"
      ],
      [
        "Ġs",
        "h"
      ],
      [
        "an",
        "s"
      ],
      [
        "Ġ",
        "C"
      ],
      [
        "Ġit",
        "s"
      ],
      [
        "Ġf",
        "rom"
      ],
      [
        "Ġ",
        "v"
      ],
      [
        "Ġt",
        "r"
      ],
      [
        "al",
        "l"
      ],
      [
        "--",
        "--"
      ],
      [
        "Ġm",
        "oney"
      ],
      [
        "is",
        "t"
      ],
      [
        "Ġthe",
        "ir"
      ],
      [
        "o",
        "c"
      ],
      [
        "ion",
        "s"
      ],
      [
        "a",
        "m"
      ],
      [
        "an",
        "c"
      ],
      [
        "a",
        "ct"
      ],
      [
        "e",
        "re"
      ],
      [
        "ar",
        "d"
      ],
      [
        "Ġ",
        "F"
      ],
      [
        "u",
        "m"
      ],
      [
        "Ġ",
        "y"
      ],
      [
        "on",
        "d"
      ],
      [
        "Ġ",
        "he"
      ],
      [
        "at",
        "es"
      ],
      [
        "er",
        "ve"
      ],
      [
        "Ġ",
        "E"
      ],
      [
        "Ġ",
        "N"
      ],
      [
        "o",
        "l"
      ],
      [
        "Ġo",
        "ther"
      ],
      [
        "ab",
        "le"
      ],
      [
        "t",
        "er"
      ],
      [
        "p",
        "er"
      ],
      [
        "g",
        "h"
      ],
      [
        "pos",
        "it"
      ],
      [
        "f",
        "f"
      ],
      [
        "00",
        "0"
      ],
      [
        "er",
        "al"
      ],
      [
        "Ġbe",
        "en"
      ],
      [
        "Ġthe",
        "y"
      ],
      [
        "p",
        "ort"
      ],
      [
        "c",
        "c"
      ],
      [
        "Ġa",
        "ll"
      ],
      [
        "Ġgo",
        "ld"
      ],
      [
        "Ġw",
        "ould"
      ],
      [
        "ch",
        "an"
      ],
      [
        "Ġs",
        "o"
      ],
      [
        "re",
        "as"
      ],
      [
        "e",
        "ar"
      ],
      [
        "ou",
        "r"
      ],
      [
        "red",
        "it"
      ],
      [
        "ar",
        "y"
      ],
      [
        "Ġw",
        "ill"
      ],
      [
        "Ġw",
        "he"
      ],
      [
        "ou",
        "gh"
      ],
      [
        "o",
        "st"
      ],
      [
        "Ġb",
        "ut"
      ],
      [
        "ad",
        "e"
      ],
      [
        "om",
        "e"
      ],
      [
        "Ġd",
        "o"
      ],
      [
        "ou",
        "s"
      ],
      [
        "it",
        "ies"
      ],
      [
        "in",
        "ess"
      ],
      [
        "ar",
        "t"
      ],
      [
        "m",
        "er"
      ],
      [
        "Ġs",
        "e"
      ],
      [
        "r",
        "y"
      ],
      [
        "us",
        "iness"
      ],
      [
        "i",
        "b"
      ],
      [
        "Ġin",
        "c"
      ],
      [
        "or",
        "k"
      ],
      [
        "Ġa",
        "l"
      ],
      [
        "Ġon",
        "e"
      ],
      [
        "ig",
        "h"
      ],
      [
        "T",
        "he"
      ],
      [
        "Ġm",
        "ore"
      ],
      [
        "Ġc",
        "ent"
      ],
      [
        "u",
        "e"
      ],
      [
        "Ġ",
        "M"
      ],
      [
        "Ġm",
        "ay"
      ],
      [
        "a",
        "c"
      ],
      [
        "Ġ",
        "L"
      ],
      [
        "Ġthe",
        "re"
      ],
      [
        "Ġa",
        "d"
      ],
      [
        "o",
        "se"
      ],
      [
        "Ġ",
        "im"
      ],
      [
        "al",
        "ly"
      ],
      [
        "i",
        "re"
      ],
      [
        "Ġc",
        "h"
      ],
      [
        "Ġ",
        "W"
      ],
      [
        "Ġan",
        "y"
      ],
      [
        "Ġa",
        "b"
      ],
      [
        "Ġcom",
        "p"
      ],
      [
        "he",
        "r"
      ],
      [
        "Ġp",
        "ric"
      ],
      [
        "u",
        "n"
      ],
      [
        "Ġa",
        "m"
      ],
      [
        "ation",
        "s"
      ],
      [
        "an",
        "y"
      ],
      [
        "Ġc",
        "ount"
      ],
      [
        "Ġc",
        "redit"
      ],
      [
        "Ġu",
        "p"
      ],
      [
        "Ġthe",
        "m"
      ],
      [
        "o",
        "p"
      ],
      [
        "Ġl",
        "o"
      ],
      [
        "Ġ",
        "R"
      ],
      [
        "Ġb",
        "usiness"
      ],
      [
        "Ġ",
        "P"
      ],
      [
        "o",
        "f"
      ],
      [
        "Ġf",
        "in"
      ],
      [
        "u",
        "re"
      ],
      [
        "Ġ",
        "_"
      ],
      [
        "Ġde",
        "posit"
      ],
      [
        "ver",
        "y"
      ],
      [
        "re",
        "at"
      ],
      [
        "chan",
        "ge"
      ],
      [
        "Ċ",
        "Ċ"
      ],
      [
        "Ġth",
        "an"
      ],
      [
        "ment",
        "s"
      ],
      [
        "on",
        "g"
      ],
      [
        "Ġp",
        "ay"
      ],
      [
        "Ġwe",
        "re"
      ],
      [
        "a",
        "g"
      ],
      [
        "Ġd",
        "is"
      ],
      [
        "Ġ",
        "G"
      ],
      [
        "o",
        "in"
      ],
      [
        "Ġin",
        "d"
      ],
      [
        "Ġl",
        "e"
      ],
      [
        "ul",
        "t"
      ],
      [
        "a",
        "v"
      ],
      [
        "Ġc",
        "an"
      ],
      [
        "Ġa",
        "g"
      ],
      [
        "Ġc",
        "as"
      ],
      [
        "a",
        "ge"
      ],
      [
        "Ġm",
        "e"
      ],
      [
        "p",
        "l"
      ],
      [
        "Ġt",
        "im"
      ],
      [
        "c",
        "y"
      ],
      [
        "b",
        "er"
      ],
      [
        "en",
        "ce"
      ],
      [
        "ou",
        "t"
      ],
      [
        "Ġ",
        "O"
      ],
      [
        "ĠS",
        "t"
      ],
      [
        "t",
        "ain"
      ],
      [
        "ĠB",
        "ank"
      ],
      [
        "Ġn",
        "o"
      ],
      [
        "nd",
        "er"
      ],
      [
        "w",
        "n"
      ],
      [
        "it",
        "al"
      ],
      [
        "d",
        "u"
      ],
      [
        "Ġl",
        "ar"
      ],
      [
        "ĠI",
        "t"
      ],
      [
        "ap",
        "ital"
      ],
      [
        "Ġsu",
        "ch"
      ],
      [
        "re",
        "n"
      ],
      [
        "ĠI",
        "n"
      ],
      [
        "ig",
        "n"
      ],
      [
        "at",
        "ed"
      ],
      [
        "Ġon",
        "ly"
      ],
      [
        "igh",
        "t"
      ],
      [
        "k",
        "e"
      ],
      [
        "Ġh",
        "is"
      ],
      [
        "Ġs",
        "ec"
      ],
      [
        "as",
        "t"
      ],
      [
        "ing",
        "s"
      ],
      [
        "Ġwh",
        "o"
      ],
      [
        "ak",
        "e"
      ],
      [
        "Ġb",
        "ill"
      ],
      [
        "ar",
        "k"
      ],
      [
        "ere",
        "st"
      ],
      [
        "Ċ",
        "ĠĠĠĠ"
      ],
      [
        "Ġ",
        "Y"
      ],
      [
        "Ġ",
        "\""
      ],
      [
        "Ġa",
        "ct"
      ],
      [
        "Ġ",
        "|"
      ],
      [
        "c",
        "on"
      ],
      [
        "Ġa",
        "cc"
      ],
      [
        "Ġ1",
        "8"
      ],
      [
        "y",
        "st"
      ],
      [
        "Ġres",
        "erve"
      ],
      [
        "yst",
        "em"
      ],
      [
        "Ġp",
        "l"
      ],
      [
        "Ġp",
        "art"
      ],
      [
        "a",
        "ch"
      ],
      [
        "b",
        "l"
      ],
      [
        "Ġ",
        "qu"
      ],
      [
        "Ġs",
        "p"
      ],
      [
        "c",
        "ount"
      ],
      [
        "Ġu",
        "n"
      ],
      [
        "Ġis",
        "su"
      ],
      [
        "Ġex",
        "change"
      ],
      [
        "am",
        "e"
      ],
      [
        "Ġo",
        "ut"
      ],
      [
        "Ġnot",
        "es"
      ],
      [
        "Ġ",
        "("
      ],
      [
        "u",
        "nd"
      ],
      [
        "Ġwhe",
        "n"
      ],
      [
        "or",
        "s"
      ],
      [
        "Ġ",
        "if"
      ],
      [
        "ce",
        "pt"
      ],
      [
        "e",
        "x"
      ],
      [
        "i",
        "z"
      ],
      [
        "Ġcom",
        "m"
      ],
      [
        "Ġinc",
        "reas"
      ],
      [
        "o",
        "ver"
      ],
      [
        "i",
        "e"
      ],
      [
        "Ġam",
        "ount"
      ],
      [
        "Ġcon",
        "t"
      ],
      [
        "b",
        "ank"
      ],
      [
        "ĠT",
        "h"
      ],
      [
        "Ġh",
        "ad"
      ],
      [
        "i",
        "p"
      ],
      [
        "t",
        "o"
      ],
      [
        "g",
        "l"
      ],
      [
        "ation",
        "al"
      ],
      [
        "o",
        "ll"
      ],
      [
        "Ġc",
        "apital"
      ],
      [
        "is",
        "h"
      ],
      [
        "Ġy",
        "ear"
      ],
      [
        "o",
        "ld"
      ],
      [
        "Ġg",
        "reat"
      ],
      [
        "Ġ",
        "D"
      ],
      [
        "Ġthe",
        "se"
      ],
      [
        "e",
        "ver"
      ],
      [
        "Ġ",
        "2"
      ],
      [
        "Ġo",
        "ur"
      ],
      [
        "a",
        "u"
      ],
      [
        "a",
        "re"
      ],
      [
        "ir",
        "c"
      ],
      [
        "Ġl",
        "i"
      ],
      [
        "w",
        "e"
      ],
      [
        "ĠĠĠĠĠĠĠĠ",
        "ĠĠĠĠĠĠĠĠ"
      ],
      [
        "n",
        "gl"
      ],
      [
        "is",
        "e"
      ],
      [
        "Ġint",
        "erest"
      ],
      [
        "Ġcount",
        "ry"
      ],
      [
        "Ġ",
        "$"
      ],
      [
        "ra",
        "ct"
      ],
      [
        "er",
        "v"
      ],
      [
        "Ġ",
        "H"
      ],
      [
        "Ġbank",
        "ing"
      ],
      [
        "oc",
        "k"
      ],
      [
        "it",
        "ed"
      ],
      [
        "ul",
        "ation"
      ],
      [
        "Ġtim",
        "e"
      ],
      [
        "Ġlar",
        "ge"
      ],
      [
        "Ġde",
        "m"
      ],
      [
        "Ġ",
        "U"
      ],
      [
        "'",
        "s"
      ],
      [
        "Ġf",
        "ar"
      ],
      [
        "Ġd",
        "ra"
      ],
      [
        "ro",
        "w"
      ],
      [
        "Ġup",
        "on"
      ],
      [
        "Ġpric",
        "es"
      ],
      [
        "Ġc",
        "ur"
      ],
      [
        "Ġu",
        "nder"
      ],
      [
        "Ġgo",
        "od"
      ],
      [
        "Ġm",
        "ade"
      ],
      [
        "Ġa",
        "pp"
      ],
      [
        "Ġs",
        "ystem"
      ],
      [
        "Ġs",
        "ome"
      ],
      [
        "d",
        "e"
      ],
      [
        "v",
        "en"
      ],
      [
        "if",
        "f"
      ],
      [
        "Ġ",
        "en"
      ],
      [
        "ĠN",
        "ew"
      ],
      [
        "ĠĠ",
        "Ġ"
      ],
      [
        "ic",
        "e"
      ],
      [
        "Ġp",
        "re"
      ],
      [
        "p",
        "ro"
      ],
      [
        "f",
        "ore"
      ],
      [
        "id",
        "e"
      ],
      [
        "en",
        "eral"
      ],
      [
        "Ġbe",
        "c"
      ],
      [
        "Ġ1",
        "9"
      ],
      [
        "Ġdem",
        "and"
      ],
      [
        "u",
        "ch"
      ],
      [
        "re",
        "e"
      ],
      [
        "Ġm",
        "ark"
      ],
      [
        "t",
        "s"
      ],
      [
        "ren",
        "cy"
      ],
      [
        "Ġin",
        "v"
      ],
      [
        "Ġp",
        "ur"
      ],
      [
        "Ġof",
        "f"
      ],
      [
        "f",
        "or"
      ],
      [
        "ou",
        "nd"
      ],
      [
        "Ġu",
        "s"
      ],
      [
        "Ġex",
        "p"
      ],
      [
        "as",
        "s"
      ],
      [
        "res",
        "ent"
      ],
      [
        "Ġb",
        "r"
      ],
      [
        "it",
        "ion"
      ],
      [
        "Ġv",
        "al"
      ],
      [
        "_",
        ","
      ],
      [
        "i",
        "ous"
      ],
      [
        "it",
        "t"
      ],
      [
        "Ġ",
        "ra"
      ],
      [
        "ve",
        "l"
      ],
      [
        "ĠE",
        "ngl"
      ],
      [
        "a",
        "il"
      ],
      [
        "ĠSt",
        "ates"
      ],
      [
        "Ġint",
        "o"
      ],
      [
        "Ġp",
        "r"
      ],
      [
        "ed",
        "eral"
      ],
      [
        "Ġcon",
        "s"
      ],
      [
        "er",
        "m"
      ],
      [
        "res",
        "s"
      ],
      [
        "----",
        "----"
      ],
      [
        "ff",
        "ect"
      ],
      [
        "a",
        "w"
      ],
      [
        "u",
        "al"
      ],
      [
        "Ġc",
        "l"
      ],
      [
        "os",
        "s"
      ],
      [
        "ĠY",
        "ork"
      ],
      [
        "au",
        "se"
      ],
      [
        "s",
        "o"
      ],
      [
        "Ġm",
        "ust"
      ],
      [
        "anc",
        "es"
      ],
      [
        "Ġc",
        "irc"
      ],
      [
        "at",
        "ive"
      ],
      [
        "Ġf",
        "act"
      ],
      [
        "se",
        "l"
      ],
      [
        "a",
        "id"
      ],
      [
        "n",
        "ment"
      ],
      [
        "Ġin",
        "st"
      ],
      [
        "ct",
        "ion"
      ],
      [
        "Ġim",
        "port"
      ],
      [
        "l",
        "u"
      ],
      [
        "ay",
        "s"
      ],
      [
        "Ġm",
        "an"
      ],
      [
        "Ġbe",
        "t"
      ],
      [
        "in",
        "d"
      ],
      [
        "Ġn",
        "ew"
      ],
      [
        "or",
        "d"
      ],
      [
        "Ġmark",
        "et"
      ],
      [
        "i",
        "ed"
      ],
      [
        "Ġg",
        "eneral"
      ],
      [
        "Ġf",
        "ir"
      ],
      [
        "Ġ",
        "very"
      ],
      [
        "Ġsu",
        "pp"
      ],
      [
        "ib",
        "le"
      ],
      [
        "ow",
        "er"
      ],
      [
        "i",
        "le"
      ],
      [
        "Ġa",
        "r"
      ],
      [
        "Ġpro",
        "v"
      ],
      [
        "ond",
        "on"
      ],
      [
        "en",
        "s"
      ],
      [
        "n",
        "ot"
      ],
      [
        "f",
        "it"
      ],
      [
        "Ġw",
        "ork"
      ],
      [
        "Ġr",
        "ate"
      ],
      [
        "e",
        "ed"
      ],
      [
        "Ġre",
        "g"
      ],
      [
        "Ġdeposit",
        "s"
      ],
      [
        "es",
        "erve"
      ],
      [
        "b",
        "e"
      ],
      [
        "Ġbill",
        "s"
      ],
      [
        "Ġlo",
        "ans"
      ],
      [
        "ĠU",
        "n"
      ],
      [
        "Ġex",
        "t"
      ],
      [
        "e",
        "p"
      ],
      [
        "Ġc",
        "er"
      ],
      [
        "Ġo",
        "ver"
      ],
      [
        "Ġb",
        "u"
      ],
      [
        "Ġt",
        "w"
      ],
      [
        "Ġc",
        "he"
      ],
      [
        "c",
        "om"
      ],
      [
        "u",
        "bl"
      ],
      [
        "Ġsec",
        "ur"
      ],
      [
        "ire",
        "ct"
      ],
      [
        "Ġm",
        "ost"
      ],
      [
        "ap",
        "er"
      ],
      [
        "e",
        "e"
      ],
      [
        "r",
        "ough"
      ],
      [
        "Ġsu",
        "b"
      ],
      [
        "j",
        "ect"
      ],
      [
        "Ġsh",
        "ould"
      ],
      [
        "ur",
        "n"
      ],
      [
        "Ġs",
        "ame"
      ],
      [
        "Ġa",
        "c"
      ],
      [
        "Ġf",
        "ore"
      ],
      [
        "le",
        "ar"
      ],
      [
        "oin",
        "t"
      ],
      [
        "Ġval",
        "ue"
      ],
      [
        "w",
        "h"
      ],
      [
        "Ġl",
        "aw"
      ],
      [
        "E",
        "R"
      ],
      [
        "Ġcur",
        "rency"
      ],
      [
        "k",
        "s"
      ],
      [
        "Ġd",
        "iff"
      ],
      [
        "Ġre",
        "qu"
      ],
      [
        "Ġcas",
        "h"
      ],
      [
        "we",
        "en"
      ],
      [
        "er",
        "n"
      ],
      [
        "Ġf",
        "und"
      ],
      [
        "A",
        "N"
      ],
      [
        "Ġ",
        "3"
      ],
      [
        "in",
        "c"
      ],
      [
        "Ġpro",
        "du"
      ],
      [
        "ĠTh",
        "is"
      ],
      [
        "il",
        "ity"
      ],
      [
        "m",
        "all"
      ],
      [
        "o",
        "ve"
      ],
      [
        "..",
        ".."
      ],
      [
        "i",
        "ly"
      ],
      [
        "ĠL",
        "ondon"
      ],
      [
        "ubl",
        "ic"
      ],
      [
        "Ġh",
        "ow"
      ],
      [
        "Ġo",
        "wn"
      ],
      [
        "Ġtr",
        "ans"
      ],
      [
        "Ġor",
        "d"
      ],
      [
        "Ġst",
        "and"
      ],
      [
        "Ġ",
        "k"
      ],
      [
        "Ġm",
        "any"
      ],
      [
        "Ġad",
        "v"
      ],
      [
        "ĠR",
        "eserve"
      ],
      [
        "it",
        "ut"
      ],
      [
        "ec",
        "ess"
      ],
      [
        "Ġ",
        "ent"
      ],
      [
        "c",
        "es"
      ],
      [
        "Ġlo",
        "an"
      ],
      [
        "Ġm",
        "uch"
      ],
      [
        "Ġh",
        "and"
      ],
      [
        "il",
        "ver"
      ],
      [
        "ĠUn",
        "ited"
      ],
      [
        "b",
        "t"
      ],
      [
        "Ġpric",
        "e"
      ],
      [
        "Ġre",
        "ce"
      ],
      [
        "mer",
        "ic"
      ],
      [
        "Ġfin",
        "anc"
      ],
      [
        "he",
        "d"
      ],
      [
        "Ġs",
        "mall"
      ],
      [
        "ĠEngl",
        "and"
      ],
      [
        "Ġd",
        "ist"
      ],
      [
        "ow",
        "n"
      ],
      [
        "Ġ",
        "est"
      ],
      [
        "ro",
        "p"
      ],
      [
        "Ġe",
        "ach"
      ],
      [
        "Ġtr",
        "ust"
      ],
      [
        "Ġinv",
        "est"
      ],
      [
        "Ġde",
        "p"
      ],
      [
        "ic",
        "al"
      ],
      [
        "Ġl",
        "ess"
      ],
      [
        "Ġu",
        "se"
      ],
      [
        "Ġgood",
        "s"
      ],
      [
        "Ġst",
        "ock"
      ],
      [
        "Ġth",
        "ose"
      ],
      [
        "Ġst",
        "ate"
      ],
      [
        "t",
        "y"
      ],
      [
        "Ġbet",
        "ween"
      ],
      [
        "Ġo",
        "b"
      ],
      [
        "Ġe",
        "qu"
      ],
      [
        "if",
        "ic"
      ],
      [
        "Ġal",
        "so"
      ],
      [
        "Ġfir",
        "st"
      ],
      [
        "or",
        "row"
      ],
      [
        "Ġdis",
        "count"
      ],
      [
        "a",
        "ce"
      ],
      [
        "Ġp",
        "aper"
      ],
      [
        "Ġy",
        "ou"
      ],
      [
        "Ġacc",
        "ount"
      ],
      [
        "ur",
        "ing"
      ],
      [
        "Ġre",
        "l"
      ],
      [
        "Ġm",
        "ake"
      ],
      [
        "r",
        "ies"
      ],
      [
        "Ġag",
        "ain"
      ],
      [
        "c",
        "l"
      ],
      [
        "r",
        "it"
      ],
      [
        "Ġm",
        "at"
      ],
      [
        "Ġtr",
        "ade"
      ],
      [
        "ust",
        "om"
      ],
      [
        "over",
        "nment"
      ],
      [
        "Ġissu",
        "e"
      ],
      [
        "Ġb",
        "ond"
      ],
      [
        "Ġfor",
        "m"
      ],
      [
        "id",
        "er"
      ],
      [
        "Ġle",
        "g"
      ],
      [
        "Ġtw",
        "o"
      ],
      [
        "Ġ",
        "J"
      ],
      [
        "g",
        "es"
      ],
      [
        "ĠI",
        "f"
      ],
      [
        "th",
        "at"
      ],
      [
        "Ġsp",
        "ec"
      ],
      [
        "Ġfore",
        "ign"
      ],
      [
        "Ġth",
        "rough"
      ],
      [
        "ur",
        "y"
      ],
      [
        "oll",
        "ow"
      ],
      [
        "r",
        "u"
      ],
      [
        "Ġincreas",
        "e"
      ],
      [
        "Ġm",
        "on"
      ],
      [
        "Ġm",
        "et"
      ],
      [
        "in",
        "e"
      ],
      [
        "Ġre",
        "m"
      ],
      [
        "Ġac",
        "cept"
      ],
      [
        "i",
        "x"
      ],
      [
        "Ġp",
        "oss"
      ],
      [
        "Ġbe",
        "ing"
      ],
      [
        "Ġ",
        "j"
      ],
      [
        "Ġpro",
        "fit"
      ],
      [
        "Ġyear",
        "s"
      ],
      [
        "i",
        "od"
      ],
      [
        "Ġ",
        "4"
      ],
      [
        "c",
        "ed"
      ],
      [
        "ab",
        "l"
      ],
      [
        "ak",
        "ing"
      ],
      [
        "Ġch",
        "ar"
      ],
      [
        "Ġn",
        "eed"
      ],
      [
        "Ġind",
        "ust"
      ],
      [
        "ch",
        "as"
      ],
      [
        "ĠA",
        "meric"
      ],
      [
        "ot",
        "her"
      ],
      [
        "r",
        "is"
      ],
      [
        "or",
        "y"
      ],
      [
        "ĠF",
        "ederal"
      ],
      [
        "Ġab",
        "out"
      ],
      [
        "Ġc",
        "lear"
      ],
      [
        "Ġch",
        "an"
      ],
      [
        "av",
        "ings"
      ],
      [
        "Ġm",
        "em"
      ],
      [
        "he",
        "s"
      ],
      [
        "Ġcas",
        "e"
      ],
      [
        "c",
        "ent"
      ],
      [
        "Ġe",
        "ffect"
      ],
      [
        "g",
        "an"
      ],
      [
        "Ġp",
        "resent"
      ],
      [
        "Ġp",
        "ower"
      ],
      [
        "r",
        "ib"
      ],
      [
        "ed",
        "i"
      ],
      [
        "ul",
        "ar"
      ],
      [
        "Ġs",
        "ilver"
      ],
      [
        "on",
        "s"
      ],
      [
        "Ġc",
        "oin"
      ],
      [
        "Ġw",
        "ar"
      ],
      [
        "Ġd",
        "irect"
      ],
      [
        "Ġn",
        "ecess"
      ],
      [
        "Ġg",
        "iv"
      ],
      [
        "mer",
        "c"
      ],
      [
        "he",
        "n"
      ],
      [
        "Ġe",
        "ven"
      ],
      [
        "f",
        "ul"
      ],
      [
        "iv",
        "id"
      ],
      [
        "Ġcirc",
        "ulation"
      ],
      [
        "merc",
        "ial"
      ],
      [
        "Ġb",
        "orrow"
      ],
      [
        "Ġp",
        "e"
      ],
      [
        "H",
        "E"
      ],
      [
        "g",
        "er"
      ],
      [
        "o",
        "ard"
      ],
      [
        "ab",
        "ly"
      ],
      [
        "Ġ19",
        "1"
      ],
      [
        "E",
        "S"
      ],
      [
        "Ġf",
        "ollow"
      ],
      [
        "f",
        "ter"
      ],
      [
        "g",
        "ed"
      ],
      [
        "Ġper",
        "iod"
      ],
      [
        "Ġli",
        "ke"
      ],
      [
        "Ġc",
        "ustom"
      ],
      [
        "ĠB",
        "ut"
      ],
      [
        "Ġd",
        "es"
      ],
      [
        "s",
        "p"
      ],
      [
        "Ġe",
        "very"
      ],
      [
        "pt",
        "ion"
      ],
      [
        "Ġbec",
        "ause"
      ],
      [
        "e",
        "red"
      ],
      [
        "in",
        "ce"
      ],
      [
        "ou",
        "se"
      ],
      [
        "Ġn",
        "um"
      ],
      [
        "is",
        "s"
      ],
      [
        "o",
        "y"
      ],
      [
        "Ġstand",
        "ard"
      ],
      [
        "Ġp",
        "ublic"
      ],
      [
        "ll",
        "ar"
      ],
      [
        "ot",
        "h"
      ],
      [
        "Ġg",
        "r"
      ],
      [
        "Ġcon",
        "d"
      ],
      [
        "Ġdo",
        "llar"
      ],
      [
        "Ġc",
        "ould"
      ],
      [
        "Ġe",
        "m"
      ],
      [
        "sel",
        "f"
      ],
      [
        "Ġcer",
        "tain"
      ],
      [
        "Ġhow",
        "ever"
      ],
      [
        "Ġbond",
        "s"
      ],
      [
        "O",
        "N"
      ],
      [
        "Ġo",
        "per"
      ],
      [
        "Ġn",
        "ational"
      ],
      [
        "ent",
        "ly"
      ],
      [
        "Ġ",
        "ke"
      ],
      [
        "at",
        "ing"
      ],
      [
        "it",
        "e"
      ],
      [
        "op",
        "le"
      ],
      [
        "ĠG",
        "overnment"
      ],
      [
        "Ġbu",
        "y"
      ],
      [
        "Ġche",
        "c"
      ],
      [
        "Ġthe",
        "n"
      ],
      [
        "Ġb",
        "al"
      ],
      [
        "Ġs",
        "et"
      ],
      [
        "wh",
        "ich"
      ],
      [
        "Ġwith",
        "out"
      ],
      [
        "Ġme",
        "ans"
      ],
      [
        "Ġpur",
        "chas"
      ],
      [
        "I",
        "n"
      ],
      [
        "it",
        "ions"
      ],
      [
        "Ġc",
        "or"
      ],
      [
        "Ġn",
        "ow"
      ],
      [
        "I",
        "N"
      ],
      [
        "i",
        "red"
      ],
      [
        "Ġwh",
        "at"
      ],
      [
        "Ġdo",
        "es"
      ],
      [
        "Ġcons",
        "ider"
      ],
      [
        "Ġagain",
        "st"
      ],
      [
        "Ġo",
        "p"
      ],
      [
        "Ġbank",
        "ers"
      ],
      [
        "Ġsupp",
        "ly"
      ],
      [
        "Ġfinanc",
        "ial"
      ],
      [
        "reas",
        "ury"
      ],
      [
        "l",
        "ess"
      ],
      [
        "Ġl",
        "ong"
      ],
      [
        "Ġr",
        "ates"
      ],
      [
        "Ġres",
        "ult"
      ],
      [
        "ĠF",
        "r"
      ],
      [
        "Ġwhe",
        "re"
      ],
      [
        "erv",
        "es"
      ],
      [
        "oc",
        "i"
      ],
      [
        "il",
        "ities"
      ],
      [
        "ĠO",
        "F"
      ],
      [
        "vel",
        "op"
      ],
      [
        "p",
        "or"
      ],
      [
        "Ġ",
        "5"
      ],
      [
        "Ġt",
        "end"
      ],
      [
        "as",
        "on"
      ],
      [
        "Ġfar",
        "m"
      ],
      [
        "s",
        "h"
      ],
      [
        "u",
        "res"
      ],
      [
        "Ġre",
        "p"
      ],
      [
        "Ġs",
        "avings"
      ],
      [
        "Ġas",
        "s"
      ],
      [
        "our",
        "se"
      ],
      [
        "an",
        "ies"
      ],
      [
        "ur",
        "al"
      ],
      [
        "e",
        "l"
      ],
      [
        "i",
        "a"
      ],
      [
        "w",
        "ays"
      ],
      [
        "Ġin",
        "f"
      ],
      [
        "Ġt",
        "ake"
      ],
      [
        "Ġp",
        "ract"
      ],
      [
        "Ġinst",
        "itut"
      ],
      [
        "Ġf",
        "all"
      ],
      [
        ".",
        "\""
      ],
      [
        "Ġse",
        "ll"
      ],
      [
        "Ġfund",
        "s"
      ],
      [
        "it",
        "s"
      ],
      [
        "Ġth",
        "us"
      ],
      [
        "Ġe",
        "ar"
      ],
      [
        "Ġc",
        "ar"
      ],
      [
        "Ġe",
        "v"
      ],
      [
        "ag",
        "es"
      ],
      [
        "Ġsecur",
        "ities"
      ],
      [
        "Ġdiff",
        "ere"
      ],
      [
        "v",
        "ing"
      ],
      [
        "Ġl",
        "oc"
      ],
      [
        "ff",
        "ic"
      ],
      [
        "Ġc",
        "all"
      ],
      [
        "is",
        "hed"
      ],
      [
        "Ġpe",
        "ople"
      ],
      [
        "re",
        "ad"
      ],
      [
        "Ġp",
        "aid"
      ],
      [
        "Ġpro",
        "b"
      ],
      [
        "ric",
        "t"
      ],
      [
        "Ġcount",
        "ries"
      ],
      [
        "c",
        "ess"
      ],
      [
        "Ġ",
        "6"
      ],
      [
        "ĠC",
        "om"
      ],
      [
        "ough",
        "t"
      ],
      [
        "a",
        "ve"
      ],
      [
        "m",
        "ost"
      ],
      [
        "ĠA",
        "s"
      ],
      [
        "ce",
        "ed"
      ],
      [
        "w",
        "ard"
      ],
      [
        "ac",
        "k"
      ],
      [
        "o",
        "k"
      ],
      [
        "it",
        "her"
      ],
      [
        "ro",
        "ad"
      ],
      [
        "T",
        "I"
      ],
      [
        "v",
        "es"
      ],
      [
        "in",
        "t"
      ],
      [
        "Ġbe",
        "fore"
      ],
      [
        "Ġwe",
        "ll"
      ],
      [
        "it",
        "u"
      ],
      [
        "en",
        "cy"
      ],
      [
        "Ġh",
        "old"
      ],
      [
        "Ġnot",
        "e"
      ],
      [
        "Ġcom",
        "mercial"
      ],
      [
        "Ġres",
        "p"
      ],
      [
        "iz",
        "ed"
      ],
      [
        "Ġat",
        "t"
      ],
      [
        "b",
        "y"
      ],
      [
        "b",
        "ers"
      ],
      [
        "Ġp",
        "ers"
      ],
      [
        "Ġtim",
        "es"
      ],
      [
        "i",
        "ent"
      ],
      [
        "Ġre",
        "t"
      ],
      [
        "Ġord",
        "er"
      ],
      [
        "d",
        "is"
      ],
      [
        "f",
        "act"
      ],
      [
        "t",
        "le"
      ],
      [
        "Ġm",
        "ain"
      ],
      [
        "su",
        "m"
      ],
      [
        "con",
        "om"
      ],
      [
        "Ġb",
        "as"
      ],
      [
        "ol",
        "um"
      ],
      [
        "Ġme",
        "et"
      ],
      [
        "ĠFr",
        "ance"
      ],
      [
        "w",
        "ith"
      ],
      [
        "Ġt",
        "erm"
      ],
      [
        "Ġh",
        "im"
      ],
      [
        "or",
        "ld"
      ],
      [
        "anc",
        "hes"
      ],
      [
        "Ġad",
        "d"
      ],
      [
        "Ġus",
        "ed"
      ],
      [
        "Ġimport",
        "ant"
      ],
      [
        "a",
        "us"
      ],
      [
        "f",
        "in"
      ],
      [
        "Ġc",
        "ourse"
      ],
      [
        "Ġde",
        "velop"
      ],
      [
        "ĠP",
        "ro"
      ],
      [
        "Ġleg",
        "al"
      ],
      [
        "t",
        "en"
      ],
      [
        "ĠThe",
        "re"
      ],
      [
        "end",
        "ing"
      ],
      [
        "ĠAmeric",
        "an"
      ],
      [
        "Ġnum",
        "ber"
      ],
      [
        "+",
        "--------"
      ],
      [
        "p",
        "le"
      ],
      [
        "Ġp",
        "oint"
      ],
      [
        "Ġwh",
        "ile"
      ],
      [
        "ab",
        "ility"
      ],
      [
        "p",
        "ose"
      ],
      [
        "Ġs",
        "c"
      ],
      [
        "iv",
        "ed"
      ],
      [
        "ric",
        "ult"
      ],
      [
        "ak",
        "en"
      ],
      [
        "Ġk",
        "n"
      ],
      [
        ".",
        ","
      ],
      [
        "i",
        "an"
      ],
      [
        "for",
        "m"
      ],
      [
        "Ġm",
        "ight"
      ],
      [
        "Ġd",
        "uring"
      ],
      [
        "ĠĠĠĠ",
        "ĠĠ"
      ],
      [
        "Ġre",
        "al"
      ],
      [
        "Ġr",
        "at"
      ],
      [
        "Ġdra",
        "f"
      ],
      [
        "Ġl",
        "im"
      ],
      [
        "un",
        "ity"
      ],
      [
        "i",
        "ew"
      ],
      [
        "l",
        "i"
      ],
      [
        "t",
        "r"
      ],
      [
        "or",
        "m"
      ],
      [
        "ĠN",
        "o"
      ],
      [
        "ĠG",
        "erm"
      ],
      [
        "ie",
        "f"
      ],
      [
        "c",
        "ur"
      ],
      [
        "u",
        "ally"
      ],
      [
        "bank",
        "s"
      ],
      [
        "h",
        "at"
      ],
      [
        "Ġs",
        "im"
      ],
      [
        "Ġfin",
        "ance"
      ],
      [
        ",",
        "\""
      ],
      [
        "f",
        "er"
      ],
      [
        "Ġh",
        "igh"
      ],
      [
        "Ġre",
        "ason"
      ],
      [
        "Ġex",
        "ist"
      ],
      [
        "Ġpro",
        "per"
      ],
      [
        "Ġest",
        "abl"
      ],
      [
        "ic",
        "ally"
      ],
      [
        "Ġex",
        "am"
      ],
      [
        "et",
        "y"
      ],
      [
        "est",
        "ion"
      ],
      [
        "Ġse",
        "em"
      ],
      [
        "Ġfin",
        "d"
      ],
      [
        "pl",
        "oy"
      ],
      [
        "Ġ19",
        "0"
      ],
      [
        "Ġtrans",
        "act"
      ],
      [
        "Ġmon",
        "th"
      ],
      [
        "Ġcond",
        "itions"
      ],
      [
        "olum",
        "e"
      ],
      [
        "r",
        "i"
      ],
      [
        "Ġp",
        "p"
      ],
      [
        "ect",
        "ion"
      ],
      [
        "Ġsh",
        "all"
      ],
      [
        "Ġgiv",
        "en"
      ],
      [
        "n",
        "ce"
      ],
      [
        "Ġb",
        "oth"
      ],
      [
        "Ġs",
        "ince"
      ],
      [
        "is",
        "ed"
      ],
      [
        "Ġcomp",
        "anies"
      ],
      [
        "Ġext",
        "ent"
      ],
      [
        "Ġa",
        "fter"
      ],
      [
        "g",
        "in"
      ],
      [
        "Ġd",
        "ou"
      ],
      [
        "ort",
        "g"
      ],
      [
        "ial",
        "ly"
      ],
      [
        "Ġsu",
        "m"
      ],
      [
        "Ġres",
        "erves"
      ],
      [
        "E",
        "N"
      ],
      [
        "a",
        "f"
      ],
      [
        "u",
        "d"
      ],
      [
        "Ġw",
        "ay"
      ],
      [
        "Ġpay",
        "ment"
      ],
      [
        "iss",
        "ion"
      ],
      [
        "a",
        "x"
      ],
      [
        "v",
        "ed"
      ],
      [
        "Ġp",
        "ol"
      ],
      [
        "..",
        "."
      ],
      [
        "port",
        "ion"
      ],
      [
        "t",
        "e"
      ],
      [
        "ant",
        "s"
      ],
      [
        "h",
        "old"
      ],
      [
        "t",
        "ific"
      ],
      [
        "u",
        "rop"
      ],
      [
        "Ġf",
        "ound"
      ],
      [
        "Ġbe",
        "l"
      ],
      [
        "ate",
        "ly"
      ],
      [
        "urop",
        "e"
      ],
      [
        "Ġw",
        "orld"
      ],
      [
        "Ġd",
        "ue"
      ],
      [
        "Ġwho",
        "le"
      ],
      [
        "Ġpl",
        "ace"
      ],
      [
        "Ġpre",
        "v"
      ],
      [
        "Ġloc",
        "al"
      ],
      [
        "I",
        "t"
      ],
      [
        "Ġex",
        "port"
      ],
      [
        "Ġgo",
        "ver"
      ],
      [
        "Ġv",
        "ar"
      ],
      [
        "itt",
        "le"
      ],
      [
        "Ġnecess",
        "ary"
      ],
      [
        "m",
        "e"
      ],
      [
        "Ġ",
        "end"
      ],
      [
        "al",
        "e"
      ],
      [
        "Ġm",
        "er"
      ],
      [
        "sel",
        "ves"
      ],
      [
        "Ġposs",
        "ible"
      ],
      [
        "Ġs",
        "om"
      ],
      [
        "Ġf",
        "ew"
      ],
      [
        "Ġex",
        "cept"
      ],
      [
        "Ġthere",
        "fore"
      ],
      [
        "Ġbr",
        "anches"
      ],
      [
        "d",
        "ra"
      ],
      [
        "Ġst",
        "ill"
      ],
      [
        "ort",
        "h"
      ],
      [
        "Ġdra",
        "wn"
      ],
      [
        "w",
        "ay"
      ],
      [
        "se",
        "qu"
      ],
      [
        "Ġu",
        "su"
      ],
      [
        "Ġ18",
        "7"
      ],
      [
        "Ġg",
        "et"
      ],
      [
        "Ġbank",
        "er"
      ],
      [
        "ak",
        "es"
      ],
      [
        "ĠW",
        "e"
      ],
      [
        "Ġ18",
        "9"
      ],
      [
        "iz",
        "ation"
      ],
      [
        "Ġra",
        "il"
      ],
      [
        "Ġpr",
        "iv"
      ],
      [
        "a",
        "red"
      ],
      [
        "l",
        "ed"
      ],
      [
        "Ġv",
        "olume"
      ],
      [
        "m",
        "in"
      ],
      [
        "t",
        "im"
      ],
      [
        "Ġe",
        "l"
      ],
      [
        "Ġem",
        "ploy"
      ],
      [
        "1",
        "8"
      ],
      [
        "I",
        "T"
      ],
      [
        "n",
        "ing"
      ],
      [
        "re",
        "nt"
      ],
      [
        "Ġpay",
        "ments"
      ],
      [
        "Ġprov",
        "id"
      ],
      [
        "o",
        "od"
      ],
      [
        "Ġn",
        "at"
      ],
      [
        "Ġam",
        "ong"
      ],
      [
        "Ġcl",
        "ass"
      ],
      [
        "Ġclear",
        "ing"
      ],
      [
        "r",
        "al"
      ],
      [
        "Ġc",
        "o"
      ],
      [
        "ur",
        "ther"
      ],
      [
        "ĠT",
        "HE"
      ],
      [
        "et",
        "ary"
      ],
      [
        "Ġreg",
        "ard"
      ],
      [
        "Ġc",
        "ris"
      ],
      [
        "ut",
        "h"
      ],
      [
        "m",
        "an"
      ],
      [
        "ĠE",
        "urope"
      ],
      [
        "Ġke",
        "ep"
      ],
      [
        "t",
        "on"
      ],
      [
        "re",
        "t"
      ],
      [
        "Ġcomp",
        "any"
      ],
      [
        "Ġsub",
        "ject"
      ],
      [
        "Ġrequ",
        "ire"
      ],
      [
        "p",
        "id"
      ],
      [
        "is",
        "ion"
      ],
      [
        "st",
        "and"
      ],
      [
        "id",
        "ent"
      ],
      [
        "Ġcont",
        "in"
      ],
      [
        "A",
        "L"
      ],
      [
        "p",
        "r"
      ],
      [
        "t",
        "al"
      ],
      [
        "al",
        "f"
      ],
      [
        "ĠThe",
        "y"
      ],
      [
        "Ġqu",
        "ant"
      ],
      [
        "Ġcont",
        "ract"
      ],
      [
        "Ġinf",
        "lu"
      ],
      [
        "Ġinstitut",
        "ions"
      ],
      [
        "h",
        "ing"
      ],
      [
        "n",
        "ess"
      ],
      [
        "s",
        "c"
      ],
      [
        "u",
        "ll"
      ],
      [
        "Ġm",
        "en"
      ],
      [
        "Ġth",
        "ree"
      ],
      [
        "Ġex",
        "chan"
      ],
      [
        "Ġor",
        "gan"
      ],
      [
        "our",
        "ces"
      ],
      [
        "Ġal",
        "ways"
      ],
      [
        "m",
        "oney"
      ],
      [
        "en",
        "se"
      ],
      [
        "Ġs",
        "erv"
      ],
      [
        "Ġe",
        "conom"
      ],
      [
        "Ġre",
        "st"
      ],
      [
        "Ġit",
        "self"
      ],
      [
        "ĠT",
        "reasury"
      ],
      [
        "Ġpur",
        "pose"
      ],
      [
        "Ġoff",
        "ic"
      ],
      [
        "Ġto",
        "tal"
      ],
      [
        "Ġl",
        "at"
      ],
      [
        "Ġl",
        "ittle"
      ],
      [
        "end",
        "ed"
      ],
      [
        "ĠC",
        "h"
      ],
      [
        "Ġy",
        "our"
      ],
      [
        "ĠO",
        "n"
      ],
      [
        "Ġlar",
        "ger"
      ],
      [
        "Ġequ",
        "al"
      ],
      [
        "ivid",
        "ual"
      ],
      [
        "o",
        "per"
      ],
      [
        "Ċ",
        "ĠĠĠĠĠĠĠĠĠĠĠĠĠĠĠĠ"
      ],
      [
        "Ġc",
        "oll"
      ],
      [
        "Ġm",
        "aking"
      ],
      [
        "ent",
        "ion"
      ],
      [
        "Ġde",
        "bt"
      ],
      [
        "Ġr",
        "ise"
      ],
      [
        "-",
        "+--------"
      ],
      [
        "Ġt",
        "urn"
      ],
      [
        "an",
        "ad"
      ],
      [
        "ic",
        "ult"
      ],
      [
        "Ġdis",
        "c"
      ],
      [
        "Ġincreas",
        "ed"
      ],
      [
        "inc",
        "ip"
      ],
      [
        "Ġk",
        "ind"
      ],
      [
        "rib",
        "ut"
      ],
      [
        "e",
        "ad"
      ],
      [
        "r",
        "an"
      ],
      [
        "Ġc",
        "aus"
      ],
      [
        "Ġan",
        "other"
      ],
      [
        "Ġl",
        "and"
      ],
      [
        "ist",
        "s"
      ],
      [
        "ĠR",
        "e"
      ],
      [
        "ĠBank",
        "s"
      ],
      [
        "Ġsecur",
        "ity"
      ],
      [
        "Ġre",
        "c"
      ],
      [
        "Ġ1",
        "0"
      ],
      [
        "end",
        "s"
      ],
      [
        "pos",
        "ed"
      ],
      [
        "Ġdollar",
        "s"
      ],
      [
        "h",
        "od"
      ],
      [
        "Ġ",
        "V"
      ],
      [
        "Ġo",
        "cc"
      ],
      [
        "al",
        "s"
      ],
      [
        "ver",
        "age"
      ],
      [
        "Ġcan",
        "not"
      ],
      [
        "Ġpl",
        "ac"
      ],
      [
        "AN",
        "K"
      ],
      [
        "l",
        "and"
      ],
      [
        "u",
        "p"
      ],
      [
        "Ġp",
        "ut"
      ],
      [
        "Ġm",
        "ill"
      ],
      [
        "Ġm",
        "ortg"
      ],
      [
        "ar",
        "ily"
      ],
      [
        "Ġu",
        "nt"
      ],
      [
        "Ġterm",
        "s"
      ],
      [
        "d",
        "em"
      ],
      [
        "u",
        "red"
      ],
      [
        "Ċ",
        "ĠĠĠ"
      ],
      [
        "in",
        "ary"
      ],
      [
        "re",
        "c"
      ],
      [
        "Ġindust",
        "ry"
      ],
      [
        "Ġmem",
        "ber"
      ],
      [
        "re",
        "qu"
      ],
      [
        "Ġs",
        "ay"
      ],
      [
        "Ġs",
        "aid"
      ],
      [
        "id",
        "ence"
      ],
      [
        "Ġr",
        "is"
      ],
      [
        "com",
        "m"
      ],
      [
        "Ġcustom",
        "ers"
      ],
      [
        "a",
        "ir"
      ],
      [
        "Ġs",
        "ur"
      ],
      [
        "ĠĠĠĠ",
        "ĠĠĠ"
      ],
      [
        "Ġpro",
        "portion"
      ],
      [
        "Ġdiffere",
        "nt"
      ],
      [
        "TI",
        "ON"
      ],
      [
        "r",
        "ong"
      ],
      [
        "Ġag",
        "ricult"
      ],
      [
        "Ġrequ",
        "ired"
      ],
      [
        "Ġprofit",
        "s"
      ],
      [
        "Ġe",
        "ither"
      ],
      [
        "Ġqu",
        "estion"
      ],
      [
        "ĠEngl",
        "ish"
      ],
      [
        "l",
        "o"
      ],
      [
        "r",
        "ial"
      ],
      [
        "Ġc",
        "ost"
      ],
      [
        "Ġf",
        "ail"
      ],
      [
        "ent",
        "s"
      ],
      [
        "act",
        "er"
      ],
      [
        "Ġab",
        "le"
      ],
      [
        "Ġmem",
        "bers"
      ],
      [
        "le",
        "ct"
      ],
      [
        "Ġal",
        "most"
      ],
      [
        "Ġs",
        "af"
      ],
      [
        "Ġde",
        "al"
      ],
      [
        "Ġha",
        "ving"
      ],
      [
        "Ġsh",
        "ow"
      ],
      [
        "Ġv",
        "iew"
      ],
      [
        "tain",
        "ed"
      ],
      [
        "Ġchan",
        "ge"
      ],
      [
        "Ġpers",
        "on"
      ],
      [
        "Ġret",
        "urn"
      ],
      [
        "dis",
        "count"
      ],
      [
        "1",
        "9"
      ],
      [
        "O",
        "R"
      ],
      [
        "Ġp",
        "res"
      ],
      [
        "Ġp",
        "ass"
      ],
      [
        "Ġe",
        "as"
      ],
      [
        "Ġl",
        "oss"
      ],
      [
        "Ġre",
        "du"
      ],
      [
        "Ġcon",
        "c"
      ],
      [
        "bl",
        "ig"
      ],
      [
        "Ġent",
        "er"
      ],
      [
        "tific",
        "ates"
      ],
      [
        "1",
        "0"
      ],
      [
        "5",
        "0"
      ],
      [
        "T",
        "h"
      ],
      [
        "h",
        "as"
      ],
      [
        "t",
        "ed"
      ],
      [
        "ĠA",
        "ct"
      ],
      [
        "res",
        "p"
      ],
      [
        "ĠB",
        "oard"
      ],
      [
        "Ġse",
        "e"
      ],
      [
        "Ġcomp",
        "et"
      ],
      [
        "Ġgreat",
        "er"
      ],
      [
        "ix",
        "ed"
      ],
      [
        "Ġchec",
        "k"
      ],
      [
        "N",
        "D"
      ],
      [
        "ic",
        "ular"
      ],
      [
        "Ġl",
        "ast"
      ],
      [
        "ĠF",
        "or"
      ],
      [
        "Ġthem",
        "selves"
      ],
      [
        "Ġind",
        "ividual"
      ],
      [
        "Ġop",
        "en"
      ],
      [
        "m",
        "edi"
      ],
      [
        "in",
        "er"
      ],
      [
        "Ġp",
        "ar"
      ],
      [
        "ab",
        "ilities"
      ],
      [
        "cc",
        "ess"
      ],
      [
        "i",
        "pp"
      ],
      [
        "Ġof",
        "ten"
      ],
      [
        "Ġp",
        "os"
      ],
      [
        "ĠC",
        "anad"
      ],
      [
        "Ġbec",
        "ome"
      ],
      [
        "Ġbal",
        "ances"
      ],
      [
        "l",
        "ing"
      ],
      [
        "Ġ",
        "7"
      ],
      [
        "Ġre",
        "ad"
      ],
      [
        "Ġcomm",
        "od"
      ],
      [
        "de",
        "posit"
      ],
      [
        "Ġra",
        "pid"
      ],
      [
        "ern",
        "ational"
      ],
      [
        "i",
        "ence"
      ],
      [
        "m",
        "itt"
      ],
      [
        "Ġt",
        "aken"
      ],
      [
        "Ġm",
        "ove"
      ],
      [
        "Ġle",
        "vel"
      ],
      [
        "Ġdra",
        "w"
      ],
      [
        "hold",
        "ers"
      ],
      [
        "uth",
        "or"
      ],
      [
        "Ġa",
        "v"
      ],
      [
        "Ġg",
        "row"
      ],
      [
        "Ġpl",
        "an"
      ],
      [
        "Ġcomm",
        "unity"
      ],
      [
        "com",
        "p"
      ],
      [
        "Ġmat",
        "ter"
      ],
      [
        "Ġmet",
        "hod"
      ],
      [
        "Ġj",
        "ust"
      ],
      [
        "Ġfarm",
        "ers"
      ],
      [
        "i",
        "o"
      ],
      [
        "Ġa",
        "verage"
      ],
      [
        "re",
        "g"
      ],
      [
        "Ġcon",
        "st"
      ],
      [
        "ĠW",
        "hen"
      ],
      [
        "Ġpr",
        "incip"
      ],
      [
        "Ġprodu",
        "ct"
      ],
      [
        "Ġunt",
        "il"
      ],
      [
        "O",
        "T"
      ],
      [
        "ect",
        "ed"
      ],
      [
        "Ġle",
        "ast"
      ],
      [
        "ie",
        "ld"
      ],
      [
        "Ġmer",
        "ch"
      ],
      [
        "Ġp",
        "rom"
      ],
      [
        "Ġh",
        "ig"
      ],
      [
        "Ġh",
        "ouse"
      ],
      [
        "Ġn",
        "ever"
      ],
      [
        "ap",
        "s"
      ],
      [
        "Ġtr",
        "ue"
      ],
      [
        "Ġab",
        "s"
      ],
      [
        "e",
        "ll"
      ],
      [
        "in",
        "k"
      ],
      [
        "an",
        "ic"
      ],
      [
        "Ġc",
        "ities"
      ],
      [
        "se",
        "t"
      ],
      [
        "Ġsh",
        "ort"
      ],
      [
        "Ġdiff",
        "icult"
      ],
      [
        "Ġrep",
        "resent"
      ],
      [
        "read",
        "y"
      ],
      [
        "A",
        "R"
      ],
      [
        "he",
        "re"
      ],
      [
        "Ġm",
        "in"
      ],
      [
        "ou",
        "th"
      ],
      [
        "Ġl",
        "ow"
      ],
      [
        "Ġ18",
        "6"
      ],
      [
        "Ġgover",
        "nment"
      ],
      [
        ".",
        "_,"
      ],
      [
        "c",
        "ot"
      ],
      [
        "Ġa",
        "ff"
      ],
      [
        "Ġf",
        "ree"
      ],
      [
        "Ġf",
        "ederal"
      ],
      [
        "Ġth",
        "ough"
      ],
      [
        "Ġbe",
        "gin"
      ],
      [
        "ĠB",
        "ANK"
      ],
      [
        "av",
        "or"
      ],
      [
        "Ġprodu",
        "ction"
      ],
      [
        "Ġadv",
        "ant"
      ],
      [
        "a",
        "cc"
      ],
      [
        "c",
        "er"
      ],
      [
        "Ġto",
        "o"
      ],
      [
        "ĠThe",
        "se"
      ],
      [
        "ol",
        "ut"
      ],
      [
        "ear",
        "ly"
      ],
      [
        "Ġme",
        "as"
      ],
      [
        "pl",
        "us"
      ],
      [
        "Ġissu",
        "ed"
      ],
      [
        "Ġcur",
        "rent"
      ],
      [
        "Ġsom",
        "et"
      ],
      [
        "Ġf",
        "urther"
      ],
      [
        "Ġan",
        "n"
      ],
      [
        "the",
        "ir"
      ],
      [
        "ant",
        "ed"
      ],
      [
        "con",
        "t"
      ],
      [
        "Ġspec",
        "ial"
      ],
      [
        "Ġrem",
        "ain"
      ],
      [
        "Ġresp",
        "ect"
      ],
      [
        "f",
        "ess"
      ],
      [
        "m",
        "ber"
      ],
      [
        "Ġs",
        "er"
      ],
      [
        "ĠI",
        "nd"
      ],
      [
        "Ġhe",
        "re"
      ],
      [
        "Ġchar",
        "acter"
      ],
      [
        "Ġchec",
        "ks"
      ],
      [
        "E",
        "D"
      ],
      [
        "b",
        "usiness"
      ],
      [
        "i",
        "ld"
      ],
      [
        "p",
        "ec"
      ],
      [
        "Ġm",
        "edi"
      ],
      [
        "Ġl",
        "ab"
      ],
      [
        "ĠSt",
        "ate"
      ],
      [
        "Ġpart",
        "icular"
      ],
      [
        "ative",
        "ly"
      ],
      [
        "ord",
        "ing"
      ],
      [
        "1",
        "00"
      ],
      [
        "g",
        "u"
      ],
      [
        "w",
        "ould"
      ],
      [
        "Ġc",
        "ause"
      ],
      [
        "Ġd",
        "ay"
      ],
      [
        "iv",
        "es"
      ],
      [
        "Ġhe",
        "ld"
      ],
      [
        "ĊĊ",
        "ĠĠĠĠ"
      ],
      [
        "ex",
        "t"
      ],
      [
        "ĠGerm",
        "any"
      ],
      [
        ".",
        "_"
      ],
      [
        "Ġo",
        "ld"
      ],
      [
        "Ġf",
        "our"
      ],
      [
        "Ġre",
        "f"
      ],
      [
        "ra",
        "in"
      ],
      [
        "Ġtransact",
        "ions"
      ],
      [
        "j",
        "ust"
      ],
      [
        "end",
        "er"
      ],
      [
        "ous",
        "es"
      ],
      [
        "Ġent",
        "ire"
      ],
      [
        "itu",
        "ation"
      ],
      [
        "Ġusu",
        "ally"
      ],
      [
        "Ġpriv",
        "ate"
      ],
      [
        "Ġconc",
        "ern"
      ],
      [
        "C",
        "H"
      ],
      [
        "l",
        "in"
      ],
      [
        "Ġp",
        "anic"
      ],
      [
        "Ġcon",
        "sequ"
      ],
      [
        "pos",
        "s"
      ],
      [
        "ong",
        "ress"
      ],
      [
        "Ġact",
        "ual"
      ],
      [
        "Ġindust",
        "rial"
      ],
      [
        "Ġadd",
        "ition"
      ],
      [
        "Ġpol",
        "ic"
      ],
      [
        "Ġquant",
        "ity"
      ],
      [
        "2",
        "5"
      ],
      [
        "h",
        "ave"
      ],
      [
        "Ġd",
        "ays"
      ],
      [
        "Ġcon",
        "f"
      ],
      [
        "Ġrece",
        "ived"
      ],
      [
        "ffic",
        "ient"
      ],
      [
        "Ġkn",
        "ow"
      ],
      [
        "Ġdraf",
        "ts"
      ],
      [
        "rec",
        "i"
      ],
      [
        "Ġpos",
        "ition"
      ],
      [
        "ar",
        "is"
      ],
      [
        "Ġde",
        "f"
      ],
      [
        "ĠA",
        "ND"
      ],
      [
        "lu",
        "d"
      ],
      [
        "Ġcer",
        "tificates"
      ],
      [
        "Ġdevelop",
        "ment"
      ],
      [
        "Ġlim",
        "it"
      ],
      [
        "Ġcris",
        "is"
      ],
      [
        "T",
        "ER"
      ],
      [
        "b",
        "le"
      ],
      [
        "h",
        "aps"
      ],
      [
        "l",
        "ow"
      ],
      [
        "Ġt",
        "ax"
      ],
      [
        "Ġa",
        "ffect"
      ],
      [
        "Ġo",
        "blig"
      ],
      [
        "Ġm",
        "od"
      ],
      [
        "Ġm",
        "akes"
      ],
      [
        "om",
        "in"
      ],
      [
        "Ġg",
        "ive"
      ],
      [
        "Ġex",
        "per"
      ],
      [
        "Ġsu",
        "ccess"
      ],
      [
        "Ġcont",
        "ro"
      ],
      [
        "Ġaccount",
        "s"
      ],
      [
        "Ġcall",
        "ed"
      ],
      [
        "l",
        "es"
      ],
      [
        "en",
        "e"
      ],
      [
        "Ġs",
        "ix"
      ],
      [
        "Ġf",
        "ixed"
      ],
      [
        "Ġsh",
        "are"
      ],
      [
        "Ġdeposit",
        "ors"
      ],
      [
        "Ġen",
        "ough"
      ],
      [
        "Ġdou",
        "bt"
      ],
      [
        "T",
        "HE"
      ],
      [
        "l",
        "ation"
      ],
      [
        "Ġm",
        "ach"
      ],
      [
        "Ġn",
        "e"
      ],
      [
        "Ġall",
        "ow"
      ],
      [
        "IN",
        "G"
      ],
      [
        "o",
        "g"
      ],
      [
        "Ġin",
        "s"
      ],
      [
        "al",
        "th"
      ],
      [
        "Ġde",
        "b"
      ],
      [
        "Ġwith",
        "in"
      ],
      [
        "ĠA",
        "t"
      ],
      [
        "ĠB",
        "rit"
      ],
      [
        "ber",
        "g"
      ],
      [
        "iz",
        "e"
      ],
      [
        "Ġinflu",
        "ence"
      ],
      [
        "c",
        "irc"
      ],
      [
        "d",
        "en"
      ],
      [
        "l",
        "ic"
      ],
      [
        "p",
        "art"
      ],
      [
        "at",
        "is"
      ],
      [
        "ut",
        "en"
      ],
      [
        "Ġde",
        "cl"
      ],
      [
        "ul",
        "ating"
      ],
      [
        "Ġsu",
        "sp"
      ],
      [
        "Ġr",
        "ight"
      ],
      [
        "Ġincreas",
        "ing"
      ],
      [
        "Ġgeneral",
        "ly"
      ],
      [
        "be",
        "en"
      ],
      [
        "Ġbal",
        "ance"
      ],
      [
        "Ġcar",
        "ry"
      ],
      [
        "p",
        "h"
      ],
      [
        "p",
        "ric"
      ],
      [
        "Ġa",
        "uthor"
      ],
      [
        "in",
        "es"
      ],
      [
        "Ġd",
        "id"
      ],
      [
        "im",
        "es"
      ],
      [
        "if",
        "ied"
      ],
      [
        "Ġint",
        "ernational"
      ],
      [
        "ious",
        "ly"
      ],
      [
        "Ġmonth",
        "s"
      ],
      [
        "c",
        "apital"
      ],
      [
        "d",
        "ay"
      ],
      [
        "i",
        "ver"
      ],
      [
        "Ġb",
        "o"
      ],
      [
        "Ġd",
        "one"
      ],
      [
        "im",
        "in"
      ],
      [
        "Ġpro",
        "cess"
      ],
      [
        "Ġcom",
        "e"
      ],
      [
        "pos",
        "es"
      ],
      [
        "ex",
        "change"
      ],
      [
        "Ġapp",
        "ro"
      ],
      [
        "Ġbet",
        "ter"
      ],
      [
        "Ġord",
        "inary"
      ],
      [
        "Ġoper",
        "ations"
      ],
      [
        "Ġexchan",
        "ges"
      ],
      [
        "Ġagricult",
        "ural"
      ],
      [
        "iner",
        "y"
      ],
      [
        "uten",
        "berg"
      ],
      [
        ")",
        ","
      ],
      [
        "m",
        "s"
      ],
      [
        "v",
        "al"
      ],
      [
        "Ġ",
        "8"
      ],
      [
        "Ġp",
        "op"
      ],
      [
        "ct",
        "ions"
      ],
      [
        "Ġon",
        "ce"
      ],
      [
        "Ġst",
        "rong"
      ],
      [
        "ĠN",
        "ational"
      ],
      [
        "Ġim",
        "medi"
      ],
      [
        "Ġset",
        "tle"
      ],
      [
        "S",
        "t"
      ],
      [
        "c",
        "redit"
      ],
      [
        "Ġf",
        "un"
      ],
      [
        "ic",
        "es"
      ],
      [
        "the",
        "re"
      ],
      [
        "ter",
        "n"
      ],
      [
        "ear",
        "s"
      ],
      [
        "ail",
        "able"
      ],
      [
        "Ġproper",
        "ty"
      ],
      [
        "a",
        "res"
      ],
      [
        "s",
        "bank"
      ],
      [
        "t",
        "ic"
      ],
      [
        "is",
        "su"
      ],
      [
        "om",
        "es"
      ],
      [
        "st",
        "ock"
      ],
      [
        "Ġn",
        "early"
      ],
      [
        "ver",
        "al"
      ],
      [
        "Ġde",
        "c"
      ],
      [
        "ich",
        "sbank"
      ],
      [
        "iv",
        "ing"
      ],
      [
        "Ġval",
        "u"
      ],
      [
        "cl",
        "us"
      ],
      [
        "Ġpurchas",
        "e"
      ],
      [
        "Ġbas",
        "is"
      ],
      [
        "Ġseem",
        "s"
      ],
      [
        "Ġpolic",
        "y"
      ],
      [
        ".",
        "["
      ],
      [
        "Ġ",
        "9"
      ],
      [
        "Ġb",
        "ack"
      ],
      [
        "Ġc",
        "rop"
      ],
      [
        "ĠS",
        "outh"
      ],
      [
        "ib",
        "ility"
      ],
      [
        "ĠH",
        "e"
      ],
      [
        "Ġlaw",
        "s"
      ],
      [
        "Ġchan",
        "ges"
      ],
      [
        "Ġcor",
        "por"
      ],
      [
        "Ġconsider",
        "able"
      ],
      [
        "Ġ",
        "..."
      ],
      [
        "er",
        "ial"
      ],
      [
        "Ġc",
        "ity"
      ],
      [
        "ĠĠĠĠ",
        "Ġ"
      ],
      [
        "ap",
        "p"
      ],
      [
        "Ġsh",
        "ip"
      ],
      [
        "Ġqu",
        "ite"
      ],
      [
        "Ġestabl",
        "ish"
      ],
      [
        "ran",
        "ge"
      ],
      [
        "Ġp",
        "ost"
      ],
      [
        "Ġde",
        "ter"
      ],
      [
        "ig",
        "in"
      ],
      [
        "Ġr",
        "u"
      ],
      [
        "th",
        "ough"
      ],
      [
        "Ġy",
        "et"
      ],
      [
        "Ġother",
        "s"
      ],
      [
        "Ġal",
        "ready"
      ],
      [
        "Ġcent",
        "ral"
      ],
      [
        "Ġoff",
        "ice"
      ],
      [
        "Ġrat",
        "her"
      ],
      [
        "1",
        "6"
      ],
      [
        "Ġc",
        "are"
      ],
      [
        "Ġf",
        "ac"
      ],
      [
        "se",
        "ts"
      ],
      [
        "Ġg",
        "u"
      ],
      [
        "ĠC",
        "ongress"
      ],
      [
        "Ġch",
        "ief"
      ],
      [
        "Ġab",
        "road"
      ],
      [
        "Ġcredit",
        "s"
      ],
      [
        "pro",
        "du"
      ],
      [
        "Ġimport",
        "ance"
      ],
      [
        "Ġhand",
        "s"
      ],
      [
        "Ġob",
        "tain"
      ],
      [
        "Ġdirect",
        "ors"
      ],
      [
        "Ġprob",
        "ably"
      ],
      [
        "1",
        "4"
      ],
      [
        "e",
        "qu"
      ],
      [
        "h",
        "ip"
      ],
      [
        "m",
        "ore"
      ],
      [
        "r",
        "ied"
      ],
      [
        "u",
        "fact"
      ],
      [
        "Â",
        "£"
      ],
      [
        "Ġ",
        "["
      ],
      [
        "Ġl",
        "end"
      ],
      [
        "Ġhe",
        "r"
      ],
      [
        "ast",
        "ic"
      ],
      [
        "Ġissu",
        "es"
      ],
      [
        "ris",
        "es"
      ],
      [
        "Ġass",
        "oci"
      ],
      [
        "resp",
        "ond"
      ],
      [
        "Ġmedi",
        "um"
      ],
      [
        "h",
        "ouse"
      ],
      [
        "Ġs",
        "ituation"
      ],
      [
        "Ġd",
        "ivid"
      ],
      [
        "ir",
        "d"
      ],
      [
        "Ġex",
        "pl"
      ],
      [
        "ul",
        "ated"
      ],
      [
        "us",
        "s"
      ],
      [
        "end",
        "ent"
      ],
      [
        "Ġab",
        "ove"
      ],
      [
        "inc",
        "reas"
      ],
      [
        "ĠAmeric",
        "a"
      ],
      [
        "Ġlike",
        "ly"
      ],
      [
        "Ġoper",
        "ation"
      ],
      [
        "tim",
        "e"
      ],
      [
        "Ġprovid",
        "ed"
      ],
      [
        "Ġsur",
        "plus"
      ],
      [
        "1",
        "7"
      ],
      [
        "S",
        "T"
      ],
      [
        "r",
        "ing"
      ],
      [
        "w",
        "ill"
      ],
      [
        "es",
        "pec"
      ],
      [
        "st",
        "itut"
      ],
      [
        "Ġres",
        "ources"
      ],
      [
        "ĠE",
        "x"
      ],
      [
        "itt",
        "ee"
      ],
      [
        "Ġman",
        "ag"
      ],
      [
        "Ġrece",
        "ive"
      ],
      [
        "Ġhig",
        "her"
      ],
      [
        "Ġmeas",
        "ure"
      ],
      [
        "A",
        "TION"
      ],
      [
        "g",
        "old"
      ],
      [
        "l",
        "ar"
      ],
      [
        "r",
        "ation"
      ],
      [
        "Ġ",
        "ro"
      ],
      [
        "is",
        "m"
      ],
      [
        "or",
        "n"
      ],
      [
        "ou",
        "p"
      ],
      [
        "Ġh",
        "ouses"
      ],
      [
        "Ġre",
        "cent"
      ],
      [
        "Ġr",
        "un"
      ],
      [
        "Ġposs",
        "ess"
      ],
      [
        "Ġfollow",
        "ing"
      ],
      [
        "Ġcommod",
        "ities"
      ],
      [
        "1",
        "2"
      ],
      [
        "c",
        "as"
      ],
      [
        "s",
        "per"
      ],
      [
        "v",
        "est"
      ],
      [
        "w",
        "as"
      ],
      [
        "Ġw",
        "orth"
      ],
      [
        "Ġf",
        "ull"
      ],
      [
        "Ġth",
        "ings"
      ],
      [
        "im",
        "um"
      ],
      [
        "ad",
        "ing"
      ],
      [
        "Ġex",
        "ceed"
      ],
      [
        "il",
        "ar"
      ],
      [
        "ĠY",
        "es"
      ],
      [
        "con",
        "s"
      ],
      [
        "lu",
        "ct"
      ],
      [
        "Ġest",
        "ate"
      ],
      [
        "Ġmon",
        "etary"
      ],
      [
        "int",
        "erest"
      ],
      [
        "Ġmain",
        "tain"
      ],
      [
        "-+--------",
        "-+--------"
      ],
      [
        "Ġcaus",
        "es"
      ],
      [
        "fess",
        "or"
      ],
      [
        "Ġmach",
        "inery"
      ],
      [
        "1",
        "3"
      ],
      [
        "f",
        "rom"
      ],
      [
        "g",
        "ing"
      ],
      [
        "i",
        "um"
      ],
      [
        "m",
        "ission"
      ],
      [
        "Ġb",
        "oard"
      ],
      [
        "Ġf",
        "ig"
      ],
      [
        "Ġre",
        "port"
      ],
      [
        "Ġfor",
        "mer"
      ],
      [
        "ĠT",
        "o"
      ],
      [
        "ge",
        "ther"
      ],
      [
        "th",
        "is"
      ],
      [
        "Ġwhe",
        "ther"
      ],
      [
        "Ġse",
        "veral"
      ],
      [
        "ag",
        "o"
      ],
      [
        "Ġcas",
        "es"
      ],
      [
        "ĠTh",
        "at"
      ],
      [
        "Ġli",
        "abilities"
      ],
      [
        "Ġpr",
        "im"
      ],
      [
        "ens",
        "ion"
      ],
      [
        "Ġlat",
        "ter"
      ],
      [
        "Th",
        "is"
      ],
      [
        "b",
        "ec"
      ],
      [
        "Ġs",
        "ide"
      ],
      [
        "Ġf",
        "ee"
      ],
      [
        "Ġper",
        "haps"
      ],
      [
        "ĠC",
        "ity"
      ],
      [
        "ĠM",
        "r"
      ],
      [
        "ex",
        "p"
      ],
      [
        "Ġcl",
        "ose"
      ],
      [
        "Ġinvest",
        "ment"
      ],
      [
        "6",
        "6"
      ],
      [
        "a",
        "im"
      ],
      [
        "an",
        "ch"
      ],
      [
        "ut",
        "ure"
      ],
      [
        "Ġas",
        "sets"
      ],
      [
        "ow",
        "ers"
      ],
      [
        "ans",
        "ion"
      ],
      [
        "ĠW",
        "hat"
      ],
      [
        "Ġsec",
        "ure"
      ],
      [
        "Ġsec",
        "ured"
      ],
      [
        "Ġcomm",
        "on"
      ],
      [
        "Ġinv",
        "ol"
      ],
      [
        "Ġexp",
        "ress"
      ],
      [
        "Ġbr",
        "anch"
      ],
      [
        "Ġob",
        "ject"
      ],
      [
        "Ġear",
        "n"
      ],
      [
        "Ġvar",
        "ious"
      ],
      [
        "stand",
        "ing"
      ],
      [
        "espec",
        "ially"
      ],
      [
        "1",
        "5"
      ],
      [
        "a",
        "ult"
      ],
      [
        "g",
        "ree"
      ],
      [
        "o",
        "b"
      ],
      [
        "p",
        "ay"
      ],
      [
        "ar",
        "m"
      ],
      [
        "ent",
        "y"
      ],
      [
        "Ġh",
        "alf"
      ],
      [
        "ĠA",
        "nd"
      ],
      [
        "ĠS",
        "cot"
      ],
      [
        "Ġad",
        "o"
      ],
      [
        "Ġsec",
        "ond"
      ],
      [
        "ĠD",
        "o"
      ],
      [
        "Ġestabl",
        "ished"
      ],
      [
        "Ġsaf",
        "e"
      ],
      [
        "mitt",
        "ed"
      ],
      [
        "poss",
        "ible"
      ],
      [
        "p",
        "ar"
      ],
      [
        "en",
        "ed"
      ],
      [
        "Ġwh",
        "ose"
      ],
      [
        "Ġpro",
        "t"
      ],
      [
        "Ġha",
        "pp"
      ],
      [
        "posit",
        "ion"
      ],
      [
        "Ġcomp",
        "le"
      ],
      [
        "reat",
        "ed"
      ],
      [
        "Ġacc",
        "om"
      ],
      [
        "Ġrest",
        "rict"
      ],
      [
        "ĠRe",
        "ichsbank"
      ],
      [
        "Ġmortg",
        "age"
      ],
      [
        "A",
        "s"
      ],
      [
        "Ġ",
        "K"
      ],
      [
        "Ġw",
        "ord"
      ],
      [
        "ic",
        "ago"
      ],
      [
        "Ġl",
        "ower"
      ],
      [
        "ve",
        "re"
      ],
      [
        "ĠI",
        "s"
      ],
      [
        "Ġcomm",
        "ittee"
      ],
      [
        "Ġadv",
        "ance"
      ],
      [
        "Ġleg",
        "is"
      ],
      [
        "Ġbas",
        "ed"
      ],
      [
        "t",
        "ender"
      ],
      [
        "ion",
        "al"
      ],
      [
        "Ġh",
        "ard"
      ],
      [
        "et",
        "all"
      ],
      [
        "ate",
        "ver"
      ],
      [
        "if",
        "e"
      ],
      [
        "od",
        "y"
      ],
      [
        "und",
        "red"
      ],
      [
        "ĠD",
        "e"
      ],
      [
        "Ġ191",
        "4"
      ],
      [
        "ĠEurope",
        "an"
      ],
      [
        "Ġcontin",
        "u"
      ],
      [
        "Ġser",
        "ious"
      ],
      [
        "c",
        "rib"
      ],
      [
        "m",
        "ark"
      ],
      [
        "n",
        "er"
      ],
      [
        "t",
        "ing"
      ],
      [
        "Ġt",
        "en"
      ],
      [
        "Ġs",
        "oci"
      ],
      [
        "Ġd",
        "own"
      ],
      [
        "Ġh",
        "ome"
      ],
      [
        "ot",
        "ton"
      ],
      [
        "the",
        "m"
      ],
      [
        "the",
        "y"
      ],
      [
        "Ġas",
        "sum"
      ],
      [
        "Ġcon",
        "n"
      ],
      [
        "ĠA",
        "d"
      ],
      [
        "em",
        "ber"
      ],
      [
        "pt",
        "ed"
      ],
      [
        "Ġint",
        "er"
      ],
      [
        "am",
        "ount"
      ],
      [
        "Ġman",
        "ufact"
      ],
      [
        "Ġcoin",
        "s"
      ],
      [
        "Ġrat",
        "io"
      ],
      [
        "Ġrequire",
        "ments"
      ],
      [
        "Ġeconom",
        "ic"
      ],
      [
        "Ġocc",
        "as"
      ],
      [
        "Ġplac",
        "ed"
      ],
      [
        "ĠBrit",
        "ish"
      ],
      [
        "w",
        "here"
      ],
      [
        "en",
        "ces"
      ],
      [
        "Ġp",
        "ast"
      ],
      [
        "Ġm",
        "ere"
      ],
      [
        "Ġe",
        "t"
      ],
      [
        "ro",
        "k"
      ],
      [
        "Ġex",
        "cess"
      ]
    ]
  }
}